#include "magic_wand_model_data.h"


// We need to keep the data array aligned on some architectures.

#ifdef __has_attribute

#define HAVE_ATTRIBUTE(x) __has_attribute(x)

#else

#define HAVE_ATTRIBUTE(x) 0

#endif

#if HAVE_ATTRIBUTE(aligned) || (defined(__GNUC__) && !defined(__clang__))

#define DATA_ALIGN_ATTRIBUTE __attribute__((aligned(4)))

#else

#define DATA_ALIGN_ATTRIBUTE

#endif


const unsigned char g_magic_wand_model_data[] DATA_ALIGN_ATTRIBUTE = {

  // Paste the data of the char array in `src/model.cc` here
  
  0x08, 0x00, 0x00, 0x00, 0x54, 0x46, 0x4c, 0x33, 0x62, 0xff, 0xff, 0xff,
  0x03, 0x00, 0x00, 0x00, 0x10, 0x00, 0x00, 0x00, 0x24, 0x00, 0x00, 0x00,
  0x78, 0x00, 0x00, 0x00, 0x24, 0x00, 0x00, 0x00, 0x05, 0x00, 0x00, 0x00,
  0x78, 0x05, 0x00, 0x00, 0xb0, 0x04, 0x00, 0x00, 0xe0, 0x02, 0x00, 0x00,
  0x60, 0x02, 0x00, 0x00, 0x54, 0x01, 0x00, 0x00, 0x01, 0x00, 0x00, 0x00,
  0x78, 0x00, 0x00, 0x00, 0x13, 0x00, 0x00, 0x00, 0x18, 0x30, 0x00, 0x00,
  0x14, 0x30, 0x00, 0x00, 0x20, 0x2f, 0x00, 0x00, 0xa8, 0x2e, 0x00, 0x00,
  0x3c, 0x2e, 0x00, 0x00, 0xec, 0x11, 0x00, 0x00, 0x98, 0x10, 0x00, 0x00,
  0xbc, 0x0e, 0x00, 0x00, 0x60, 0x06, 0x00, 0x00, 0xfc, 0x05, 0x00, 0x00,
  0x78, 0x05, 0x00, 0x00, 0xec, 0x2f, 0x00, 0x00, 0xe8, 0x2f, 0x00, 0x00,
  0xe4, 0x2f, 0x00, 0x00, 0xe0, 0x2f, 0x00, 0x00, 0xdc, 0x2f, 0x00, 0x00,
  0xd8, 0x2f, 0x00, 0x00, 0xd4, 0x2f, 0x00, 0x00, 0xd0, 0x2f, 0x00, 0x00,
  0x0f, 0x00, 0x00, 0x00, 0x4d, 0x4c, 0x49, 0x52, 0x20, 0x43, 0x6f, 0x6e,
  0x76, 0x65, 0x72, 0x74, 0x65, 0x64, 0x2e, 0x00, 0x00, 0x00, 0x0e, 0x00,
  0x18, 0x00, 0x04, 0x00, 0x08, 0x00, 0x0c, 0x00, 0x10, 0x00, 0x14, 0x00,
  0x0e, 0x00, 0x00, 0x00, 0x14, 0x00, 0x00, 0x00, 0x5c, 0x00, 0x00, 0x00,
  0x60, 0x00, 0x00, 0x00, 0x64, 0x00, 0x00, 0x00, 0x84, 0x00, 0x00, 0x00,
  0x12, 0x00, 0x00, 0x00, 0x48, 0x2f, 0x00, 0x00, 0xe4, 0x2e, 0x00, 0x00,
  0x3c, 0x2e, 0x00, 0x00, 0xd8, 0x2d, 0x00, 0x00, 0x70, 0x2d, 0x00, 0x00,
  0x1c, 0x11, 0x00, 0x00, 0xc0, 0x0f, 0x00, 0x00, 0xe4, 0x0d, 0x00, 0x00,
  0xa0, 0x05, 0x00, 0x00, 0x3c, 0x05, 0x00, 0x00, 0xb0, 0x04, 0x00, 0x00,
  0xe8, 0x03, 0x00, 0x00, 0x38, 0x03, 0x00, 0x00, 0xa4, 0x02, 0x00, 0x00,
  0x10, 0x02, 0x00, 0x00, 0x90, 0x01, 0x00, 0x00, 0xfc, 0x00, 0x00, 0x00,
  0x80, 0x00, 0x00, 0x00, 0x01, 0x00, 0x00, 0x00, 0x00, 0x00, 0x00, 0x00,
  0x01, 0x00, 0x00, 0x00, 0x11, 0x00, 0x00, 0x00, 0x08, 0x00, 0x00, 0x00,
  0x1c, 0x04, 0x00, 0x00, 0x58, 0x03, 0x00, 0x00, 0xc8, 0x02, 0x00, 0x00,
  0x24, 0x02, 0x00, 0x00, 0xac, 0x01, 0x00, 0x00, 0x10, 0x01, 0x00, 0x00,
  0x94, 0x00, 0x00, 0x00, 0x10, 0x00, 0x00, 0x00, 0x04, 0x00, 0x00, 0x00,
  0x6d, 0x61, 0x69, 0x6e, 0x00, 0x00, 0x00, 0x00, 0x8e, 0xff, 0xff, 0xff,
  0x00, 0x00, 0x00, 0x09, 0x04, 0x00, 0x00, 0x00, 0x1c, 0x00, 0x00, 0x00,
  0x10, 0x00, 0x00, 0x00, 0x04, 0x00, 0x00, 0x00, 0x0a, 0xd2, 0xff, 0xff,
  0x00, 0x00, 0x80, 0x3f, 0x01, 0x00, 0x00, 0x00, 0x11, 0x00, 0x00, 0x00,
  0x01, 0x00, 0x00, 0x00, 0x10, 0x00, 0x00, 0x00, 0xf6, 0xfb, 0xff, 0xff,
  0x00, 0x00, 0x00, 0x19, 0x01, 0x00, 0x00, 0x00, 0x8a, 0xd1, 0xff, 0xff,
  0x10, 0x00, 0x00, 0x00, 0x12, 0x00, 0x00, 0x00, 0x14, 0x00, 0x00, 0x00,
  0x20, 0x00, 0x00, 0x00, 0x02, 0x00, 0x00, 0x00, 0x01, 0x00, 0x00, 0x00,
  0x04, 0x00, 0x00, 0x00, 0x08, 0x00, 0x00, 0x00, 0x49, 0x64, 0x65, 0x6e,
  0x74, 0x69, 0x74, 0x79, 0x00, 0x00, 0x00, 0x00, 0xc4, 0xd1, 0xff, 0xff,
  0x00, 0x00, 0x0e, 0x00, 0x18, 0x00, 0x08, 0x00, 0x0c, 0x00, 0x10, 0x00,
  0x07, 0x00, 0x14, 0x00, 0x0e, 0x00, 0x00, 0x00, 0x00, 0x00, 0x00, 0x08,
  0x03, 0x00, 0x00, 0x00, 0x18, 0x00, 0x00, 0x00, 0x0c, 0x00, 0x00, 0x00,
  0x04, 0x00, 0x00, 0x00, 0x98, 0xd1, 0xff, 0xff, 0x01, 0x00, 0x00, 0x00,
  0x10, 0x00, 0x00, 0x00, 0x03, 0x00, 0x00, 0x00, 0x0f, 0x00, 0x00, 0x00,
  0x05, 0x00, 0x00, 0x00, 0x02, 0x00, 0x00, 0x00, 0x02, 0xd2, 0xff, 0xff,
  0x10, 0x00, 0x00, 0x00, 0x11, 0x00, 0x00, 0x00, 0x14, 0x00, 0x00, 0x00,
  0x30, 0x00, 0x00, 0x00, 0x02, 0x00, 0x00, 0x00, 0x01, 0x00, 0x00, 0x00,
  0x04, 0x00, 0x00, 0x00, 0x1a, 0x00, 0x00, 0x00, 0x73, 0x65, 0x71, 0x75,
  0x65, 0x6e, 0x74, 0x69, 0x61, 0x6c, 0x2f, 0x64, 0x65, 0x6e, 0x73, 0x65,
  0x5f, 0x31, 0x2f, 0x42, 0x69, 0x61, 0x73, 0x41, 0x64, 0x64, 0x00, 0x00,
  0xf4, 0xd1, 0xff, 0xff, 0xd6, 0xfd, 0xff, 0xff, 0x00, 0x00, 0x00, 0x08,
  0x03, 0x00, 0x00, 0x00, 0x24, 0x00, 0x00, 0x00, 0x18, 0x00, 0x00, 0x00,
  0x0c, 0x00, 0x00, 0x00, 0x00, 0x00, 0x06, 0x00, 0x08, 0x00, 0x07, 0x00,
  0x06, 0x00, 0x00, 0x00, 0x00, 0x00, 0x00, 0x01, 0x01, 0x00, 0x00, 0x00,
  0x0f, 0x00, 0x00, 0x00, 0x03, 0x00, 0x00, 0x00, 0x0e, 0x00, 0x00, 0x00,
  0x04, 0x00, 0x00, 0x00, 0x01, 0x00, 0x00, 0x00, 0xfe, 0xfc, 0xff, 0xff,
  0x00, 0x00, 0x00, 0x09, 0x01, 0x00, 0x00, 0x00, 0x92, 0xd2, 0xff, 0xff,
  0x10, 0x00, 0x00, 0x00, 0x10, 0x00, 0x00, 0x00, 0x14, 0x00, 0x00, 0x00,
  0x2c, 0x00, 0x00, 0x00, 0x02, 0x00, 0x00, 0x00, 0x01, 0x00, 0x00, 0x00,
  0x10, 0x00, 0x00, 0x00, 0x15, 0x00, 0x00, 0x00, 0x73, 0x65, 0x71, 0x75,
  0x65, 0x6e, 0x74, 0x69, 0x61, 0x6c, 0x2f, 0x64, 0x65, 0x6e, 0x73, 0x65,
  0x2f, 0x52, 0x65, 0x6c, 0x75, 0x00, 0x00, 0x00, 0xd8, 0xd2, 0xff, 0xff,
  0x00, 0x00, 0x0a, 0x00, 0x10, 0x00, 0x04, 0x00, 0x08, 0x00, 0x0c, 0x00,
  0x0a, 0x00, 0x00, 0x00, 0x02, 0x00, 0x00, 0x00, 0x10, 0x00, 0x00, 0x00,
  0x04, 0x00, 0x00, 0x00, 0x01, 0x00, 0x00, 0x00, 0x0e, 0x00, 0x00, 0x00,
  0x02, 0x00, 0x00, 0x00, 0x0d, 0x00, 0x00, 0x00, 0x03, 0x00, 0x00, 0x00,
  0x7a, 0xfd, 0xff, 0xff, 0x00, 0x00, 0x00, 0x16, 0x01, 0x00, 0x00, 0x00,
  0x0e, 0xd3, 0xff, 0xff, 0x10, 0x00, 0x00, 0x00, 0x0f, 0x00, 0x00, 0x00,
  0x14, 0x00, 0x00, 0x00, 0x30, 0x00, 0x00, 0x00, 0x02, 0x00, 0x00, 0x00,
  0x01, 0x00, 0x00, 0x00, 0x70, 0x00, 0x00, 0x00, 0x1a, 0x00, 0x00, 0x00,
  0x73, 0x65, 0x71, 0x75, 0x65, 0x6e, 0x74, 0x69, 0x61, 0x6c, 0x2f, 0x66,
  0x6c, 0x61, 0x74, 0x74, 0x65, 0x6e, 0x2f, 0x52, 0x65, 0x73, 0x68, 0x61,
  0x70, 0x65, 0x00, 0x00, 0x00, 0xd3, 0xff, 0xff, 0xe2, 0xfe, 0xff, 0xff,
  0x00, 0x00, 0x00, 0x05, 0x01, 0x00, 0x00, 0x00, 0x38, 0x00, 0x00, 0x00,
  0x2c, 0x00, 0x00, 0x00, 0x14, 0x00, 0x00, 0x00, 0x00, 0x00, 0x0e, 0x00,
  0x14, 0x00, 0x00, 0x00, 0x10, 0x00, 0x0c, 0x00, 0x08, 0x00, 0x04, 0x00,
  0x0e, 0x00, 0x00, 0x00, 0x03, 0x00, 0x00, 0x00, 0x01, 0x00, 0x00, 0x00,
  0x03, 0x00, 0x00, 0x00, 0x01, 0x00, 0x00, 0x00, 0x01, 0x00, 0x00, 0x00,
  0x0d, 0x00, 0x00, 0x00, 0x01, 0x00, 0x00, 0x00, 0x0c, 0x00, 0x00, 0x00,
  0x9e, 0xd3, 0xff, 0xff, 0x10, 0x00, 0x00, 0x00, 0x0e, 0x00, 0x00, 0x00,
  0x1c, 0x00, 0x00, 0x00, 0x40, 0x00, 0x00, 0x00, 0x04, 0x00, 0x00, 0x00,
  0x01, 0x00, 0x00, 0x00, 0x07, 0x00, 0x00, 0x00, 0x01, 0x00, 0x00, 0x00,
  0x10, 0x00, 0x00, 0x00, 0x22, 0x00, 0x00, 0x00, 0x73, 0x65, 0x71, 0x75,
  0x65, 0x6e, 0x74, 0x69, 0x61, 0x6c, 0x2f, 0x6d, 0x61, 0x78, 0x5f, 0x70,
  0x6f, 0x6f, 0x6c, 0x69, 0x6e, 0x67, 0x32, 0x64, 0x5f, 0x31, 0x2f, 0x4d,
  0x61, 0x78, 0x50, 0x6f, 0x6f, 0x6c, 0x00, 0x00, 0xa0, 0xd3, 0xff, 0xff,
  0xc2, 0xfe, 0xff, 0xff, 0x00, 0x00, 0x00, 0x01, 0x24, 0x00, 0x00, 0x00,
  0x18, 0x00, 0x00, 0x00, 0x04, 0x00, 0x00, 0x00, 0xb4, 0xfe, 0xff, 0xff,
  0x01, 0x00, 0x00, 0x00, 0x01, 0x00, 0x00, 0x00, 0x00, 0x00, 0x00, 0x01,
  0x01, 0x00, 0x00, 0x00, 0x0c, 0x00, 0x00, 0x00, 0x03, 0x00, 0x00, 0x00,
  0x0b, 0x00, 0x00, 0x00, 0x07, 0x00, 0x00, 0x00, 0x09, 0x00, 0x00, 0x00,
  0x2e, 0xd4, 0xff, 0xff, 0x10, 0x00, 0x00, 0x00, 0x0d, 0x00, 0x00, 0x00,
  0x1c, 0x00, 0x00, 0x00, 0x2c, 0x00, 0x00, 0x00, 0x04, 0x00, 0x00, 0x00,
  0x01, 0x00, 0x00, 0x00, 0x15, 0x00, 0x00, 0x00, 0x01, 0x00, 0x00, 0x00,
  0x10, 0x00, 0x00, 0x00, 0x0c, 0x00, 0x00, 0x00, 0x74, 0x66, 0x6c, 0x2e,
  0x63, 0x6f, 0x6e, 0x76, 0x5f, 0x32, 0x64, 0x31, 0x00, 0x00, 0x00, 0x00,
  0x74, 0xd4, 0xff, 0xff, 0x00, 0x00, 0x0e, 0x00, 0x1a, 0x00, 0x08, 0x00,
  0x0c, 0x00, 0x10, 0x00, 0x07, 0x00, 0x14, 0x00, 0x0e, 0x00, 0x00, 0x00,
  0x00, 0x00, 0x00, 0x05, 0x01, 0x00, 0x00, 0x00, 0x3c, 0x00, 0x00, 0x00,
  0x30, 0x00, 0x00, 0x00, 0x14, 0x00, 0x00, 0x00, 0x00, 0x00, 0x0e, 0x00,
  0x18, 0x00, 0x17, 0x00, 0x10, 0x00, 0x0c, 0x00, 0x08, 0x00, 0x04, 0x00,
  0x0e, 0x00, 0x00, 0x00, 0x03, 0x00, 0x00, 0x00, 0x03, 0x00, 0x00, 0x00,
  0x03, 0x00, 0x00, 0x00, 0x03, 0x00, 0x00, 0x00, 0x00, 0x00, 0x00, 0x01,
  0x01, 0x00, 0x00, 0x00, 0x0b, 0x00, 0x00, 0x00, 0x01, 0x00, 0x00, 0x00,
  0x0a, 0x00, 0x00, 0x00, 0x46, 0xff, 0xff, 0xff, 0x00, 0x00, 0x00, 0x11,
  0x01, 0x00, 0x00, 0x00, 0xda, 0xd4, 0xff, 0xff, 0x10, 0x00, 0x00, 0x00,
  0x0c, 0x00, 0x00, 0x00, 0x1c, 0x00, 0x00, 0x00, 0x40, 0x00, 0x00, 0x00,
  0x04, 0x00, 0x00, 0x00, 0x01, 0x00, 0x00, 0x00, 0x15, 0x00, 0x00, 0x00,
  0x01, 0x00, 0x00, 0x00, 0x08, 0x00, 0x00, 0x00, 0x20, 0x00, 0x00, 0x00,
  0x73, 0x65, 0x71, 0x75, 0x65, 0x6e, 0x74, 0x69, 0x61, 0x6c, 0x2f, 0x6d,
  0x61, 0x78, 0x5f, 0x70, 0x6f, 0x6f, 0x6c, 0x69, 0x6e, 0x67, 0x32, 0x64,
  0x2f, 0x4d, 0x61, 0x78, 0x50, 0x6f, 0x6f, 0x6c, 0x00, 0x00, 0x00, 0x00,
  0x34, 0xd5, 0xff, 0xff, 0x00, 0x00, 0x0e, 0x00, 0x14, 0x00, 0x00, 0x00,
  0x08, 0x00, 0x0c, 0x00, 0x07, 0x00, 0x10, 0x00, 0x0e, 0x00, 0x00, 0x00,
  0x00, 0x00, 0x00, 0x01, 0x30, 0x00, 0x00, 0x00, 0x24, 0x00, 0x00, 0x00,
  0x10, 0x00, 0x00, 0x00, 0x0c, 0x00, 0x10, 0x00, 0x00, 0x00, 0x04, 0x00,
  0x08, 0x00, 0x0f, 0x00, 0x0c, 0x00, 0x00, 0x00, 0x01, 0x00, 0x00, 0x00,
  0x01, 0x00, 0x00, 0x00, 0x00, 0x00, 0x00, 0x01, 0x01, 0x00, 0x00, 0x00,
  0x0a, 0x00, 0x00, 0x00, 0x03, 0x00, 0x00, 0x00, 0x00, 0x00, 0x00, 0x00,
  0x06, 0x00, 0x00, 0x00, 0x08, 0x00, 0x00, 0x00, 0x00, 0x00, 0x0a, 0x00,
  0x0c, 0x00, 0x07, 0x00, 0x00, 0x00, 0x08, 0x00, 0x0a, 0x00, 0x00, 0x00,
  0x00, 0x00, 0x00, 0x03, 0x01, 0x00, 0x00, 0x00, 0x9e, 0xd5, 0xff, 0xff,
  0x10, 0x00, 0x00, 0x00, 0x0b, 0x00, 0x00, 0x00, 0x1c, 0x00, 0x00, 0x00,
  0x28, 0x00, 0x00, 0x00, 0x04, 0x00, 0x00, 0x00, 0x01, 0x00, 0x00, 0x00,
  0x40, 0x00, 0x00, 0x00, 0x03, 0x00, 0x00, 0x00, 0x08, 0x00, 0x00, 0x00,
  0x0b, 0x00, 0x00, 0x00, 0x74, 0x66, 0x6c, 0x2e, 0x63, 0x6f, 0x6e, 0x76,
  0x5f, 0x32, 0x64, 0x00, 0x88, 0xd5, 0xff, 0xff, 0x7e, 0xd6, 0xff, 0xff,
  0x04, 0x00, 0x00, 0x00, 0x40, 0x00, 0x00, 0x00, 0x9b, 0x8d, 0x83, 0x3e,
  0xf0, 0x09, 0x16, 0x3f, 0x3a, 0x9f, 0x16, 0xbf, 0x9c, 0xd6, 0xcf, 0xbe,
  0x70, 0x71, 0x16, 0xbb, 0x2c, 0x6d, 0x9c, 0xbe, 0xa8, 0x41, 0x02, 0xbe,
  0x7c, 0x00, 0x93, 0xbe, 0x79, 0xb5, 0x9e, 0x3f, 0xea, 0x4e, 0x27, 0xbf,
  0x6a, 0xee, 0xbd, 0xbe, 0xd0, 0x29, 0x4a, 0xbc, 0xdd, 0x02, 0x17, 0xbf,
  0xa9, 0xef, 0x0e, 0xbf, 0xfd, 0x42, 0x38, 0xbf, 0xd1, 0xc7, 0x03, 0xbf,
  0x26, 0xd6, 0xff, 0xff, 0x10, 0x00, 0x00, 0x00, 0x0a, 0x00, 0x00, 0x00,
  0x10, 0x00, 0x00, 0x00, 0x20, 0x00, 0x00, 0x00, 0x01, 0x00, 0x00, 0x00,
  0x10, 0x00, 0x00, 0x00, 0x0d, 0x00, 0x00, 0x00, 0x73, 0x74, 0x64, 0x2e,
  0x63, 0x6f, 0x6e, 0x73, 0x74, 0x61, 0x6e, 0x74, 0x31, 0x00, 0x00, 0x00,
  0x08, 0xd6, 0xff, 0xff, 0xfe, 0xd6, 0xff, 0xff, 0x04, 0x00, 0x00, 0x00,
  0x20, 0x00, 0x00, 0x00, 0xf0, 0xc4, 0x75, 0xbf, 0x28, 0x4c, 0xd0, 0xbf,
  0xd8, 0x9c, 0x90, 0xbf, 0xf3, 0x1c, 0x98, 0xbf, 0x67, 0xb4, 0xa5, 0xbf,
  0xc1, 0xe3, 0x1d, 0xbf, 0x9e, 0x2e, 0x37, 0xbf, 0x28, 0x66, 0x33, 0xbf,
  0x86, 0xd6, 0xff, 0xff, 0x10, 0x00, 0x00, 0x00, 0x09, 0x00, 0x00, 0x00,
  0x10, 0x00, 0x00, 0x00, 0x20, 0x00, 0x00, 0x00, 0x01, 0x00, 0x00, 0x00,
  0x08, 0x00, 0x00, 0x00, 0x0c, 0x00, 0x00, 0x00, 0x73, 0x74, 0x64, 0x2e,
  0x63, 0x6f, 0x6e, 0x73, 0x74, 0x61, 0x6e, 0x74, 0x00, 0x00, 0x00, 0x00,
  0x68, 0xd6, 0xff, 0xff, 0x5e, 0xd7, 0xff, 0xff, 0x04, 0x00, 0x00, 0x00,
  0x00, 0x08, 0x00, 0x00, 0xdc, 0xc6, 0xb7, 0xbe, 0x9e, 0x53, 0x42, 0xbd,
  0xcb, 0xad, 0x4e, 0xbe, 0x96, 0xb2, 0x74, 0xbe, 0x3f, 0x18, 0x23, 0xbe,
  0xce, 0x03, 0x8f, 0xbe, 0x64, 0x13, 0x36, 0xbe, 0x97, 0xd3, 0xc6, 0xbe,
  0x21, 0xa3, 0x8b, 0xbe, 0xd7, 0xc5, 0xe9, 0xbd, 0x2b, 0x0f, 0x32, 0x3e,
  0xa8, 0xc8, 0x79, 0xbd, 0x7f, 0x46, 0x21, 0x3d, 0x8c, 0xeb, 0x2d, 0xbd,
  0xff, 0x24, 0x16, 0xbd, 0x31, 0x01, 0x10, 0x3e, 0xfc, 0xf0, 0x88, 0xbe,
  0x5c, 0xe2, 0x0f, 0x3e, 0xd9, 0x1f, 0xfe, 0xbd, 0x76, 0xb1, 0xaa, 0xbd,
  0x53, 0x60, 0x86, 0x3b, 0xf2, 0x75, 0x12, 0x3e, 0x43, 0xd6, 0x27, 0xbd,
  0x62, 0xcc, 0xa2, 0xbd, 0xd6, 0x54, 0xcc, 0xbd, 0x63, 0x84, 0xa8, 0x3d,
  0x4f, 0x68, 0x36, 0x3e, 0x3e, 0xa8, 0x69, 0x3e, 0x9d, 0x6e, 0x89, 0xbd,
  0x0b, 0x1b, 0x9b, 0x3d, 0xf6, 0x95, 0x84, 0xbc, 0x8c, 0xee, 0x24, 0xbd,
  0x3e, 0xea, 0x49, 0x3d, 0x97, 0x84, 0x0a, 0xbf, 0x2c, 0x05, 0xba, 0xbd,
  0xcb, 0x9d, 0x27, 0xbe, 0xaf, 0xd3, 0x3c, 0xbd, 0xed, 0x2c, 0x35, 0xbe,
  0x74, 0x6a, 0xcd, 0x3d, 0xc5, 0xca, 0x31, 0xbe, 0x99, 0xc8, 0xb8, 0x3d,
  0x15, 0x2b, 0x25, 0x3e, 0x08, 0x19, 0x84, 0xbe, 0x16, 0xc0, 0xfa, 0x3d,
  0x6b, 0xb2, 0x70, 0xbe, 0x4a, 0xb1, 0x12, 0xbe, 0x50, 0x3e, 0x16, 0x3e,
  0x02, 0x38, 0x0e, 0xbd, 0x79, 0x30, 0x3a, 0xbe, 0xba, 0x44, 0xdb, 0x3a,
  0xd2, 0xdc, 0xd2, 0xbc, 0xf3, 0xa6, 0x86, 0xbe, 0xe8, 0x34, 0x45, 0xbe,
  0xba, 0xb6, 0xd2, 0xbe, 0xea, 0x51, 0xf7, 0xbd, 0x99, 0x3c, 0x00, 0x3e,
  0x3e, 0x94, 0x62, 0xbd, 0x2c, 0x36, 0x1a, 0xbe, 0x54, 0xb8, 0xaf, 0x3d,
  0xcc, 0xf1, 0x95, 0xbe, 0xa5, 0x3a, 0xc8, 0xbd, 0x8d, 0xcc, 0xa9, 0xbe,
  0x48, 0xc0, 0xf7, 0xbc, 0x92, 0xe7, 0xde, 0x3d, 0xa0, 0x53, 0x00, 0xbe,
  0x60, 0xe8, 0xa9, 0xbc, 0xae, 0x19, 0xe1, 0xbd, 0x4f, 0x51, 0x8a, 0xbd,
  0x86, 0x99, 0x4b, 0xbd, 0xde, 0xb0, 0x1f, 0xbe, 0x5e, 0x83, 0x2c, 0xbe,
  0xe7, 0xd1, 0xf9, 0xbd, 0xf0, 0xd6, 0x47, 0x3e, 0x48, 0x98, 0xbb, 0x3d,
  0xbd, 0x71, 0x6d, 0xbd, 0xff, 0xf7, 0xd3, 0x3d, 0x90, 0x7f, 0xe0, 0x3d,
  0xa8, 0x37, 0x19, 0x3e, 0x7b, 0xc9, 0x4c, 0xbd, 0x8d, 0xc4, 0x7c, 0x3d,
  0xea, 0x2d, 0x0e, 0x3d, 0x3e, 0x2a, 0x67, 0xbc, 0x79, 0x60, 0xbc, 0xbd,
  0x5b, 0x0a, 0x50, 0x3d, 0x26, 0x44, 0x88, 0xbd, 0x46, 0xca, 0x47, 0xbd,
  0x8f, 0x78, 0x72, 0xbe, 0x1a, 0xbf, 0x20, 0xbe, 0xe2, 0xb2, 0x60, 0xbc,
  0x8b, 0x0e, 0x03, 0x3e, 0xd6, 0x02, 0x6a, 0x3d, 0xc3, 0x6c, 0x0e, 0xbc,
  0xb4, 0xaa, 0x54, 0xbd, 0xb0, 0x05, 0x41, 0x3e, 0x92, 0xe9, 0xe6, 0xbd,
  0x46, 0xa5, 0x0c, 0xbc, 0x6e, 0x93, 0x74, 0xbe, 0xbf, 0x52, 0xa2, 0xbe,
  0x86, 0x51, 0xe5, 0xbd, 0x80, 0x73, 0x1a, 0xbd, 0x0e, 0x43, 0x99, 0xbe,
  0x15, 0x4f, 0x03, 0xbe, 0xd7, 0xae, 0x8e, 0xbd, 0x47, 0xfd, 0x9d, 0xbe,
  0x6c, 0xd4, 0x7e, 0xbe, 0xe0, 0x14, 0x3c, 0xbe, 0x15, 0xa0, 0x73, 0xbe,
  0x3f, 0x0c, 0x58, 0xbd, 0x8b, 0xb7, 0x1f, 0xbe, 0x8d, 0x77, 0x64, 0xbe,
  0xf6, 0x29, 0x1f, 0xbd, 0x85, 0x08, 0x91, 0xbe, 0xf5, 0x10, 0xce, 0xbd,
  0x9f, 0x13, 0x8b, 0x3d, 0xd6, 0xfa, 0xf0, 0x3c, 0x46, 0x50, 0xfe, 0xbc,
  0x00, 0x6a, 0x48, 0x3e, 0x21, 0xa0, 0x95, 0xbd, 0xd9, 0x0d, 0x0b, 0xbd,
  0x39, 0x10, 0x74, 0xbe, 0x58, 0x72, 0x42, 0x3e, 0xc4, 0x54, 0xc3, 0xbd,
  0xe5, 0x06, 0x61, 0x3e, 0x14, 0xac, 0x76, 0xbd, 0x57, 0x2f, 0x00, 0x3e,
  0x8f, 0x08, 0x12, 0x3c, 0x89, 0x63, 0x87, 0x3c, 0x5b, 0x2f, 0xdc, 0x3e,
  0xff, 0x4d, 0xe6, 0xbe, 0xb0, 0x8f, 0xc2, 0xbe, 0x8a, 0x9b, 0xf1, 0xbe,
  0xbc, 0x7d, 0xc4, 0xbe, 0xf7, 0x44, 0xea, 0xbc, 0x8e, 0x86, 0xc2, 0xbd,
  0xb3, 0xb9, 0x24, 0xbe, 0x17, 0x15, 0x4c, 0xbe, 0xf1, 0x0d, 0xc3, 0xbe,
  0x10, 0x98, 0x87, 0xbe, 0x67, 0x18, 0x36, 0xbe, 0xea, 0x7f, 0x44, 0xbe,
  0xe0, 0xd1, 0x00, 0xbd, 0xd2, 0xc8, 0x4e, 0xbe, 0xe0, 0xe2, 0x32, 0xbe,
  0x67, 0x11, 0xf8, 0x3d, 0x5f, 0x91, 0x91, 0xbe, 0xe8, 0x04, 0x43, 0x3d,
  0x0a, 0x7f, 0x98, 0xbd, 0xdc, 0x39, 0x81, 0xbd, 0x9f, 0x23, 0x4d, 0xbe,
  0xc6, 0xd4, 0xb8, 0xbd, 0xda, 0x65, 0xc8, 0xbd, 0x77, 0xe4, 0xd5, 0xbd,
  0xad, 0x6f, 0xc9, 0xbd, 0xd1, 0x6c, 0x8d, 0x3e, 0xf4, 0x05, 0x80, 0x3e,
  0x9f, 0x01, 0x7c, 0x3d, 0xad, 0x95, 0x58, 0xbd, 0xef, 0x68, 0xc0, 0xbc,
  0x72, 0x91, 0x18, 0x3e, 0x0c, 0x39, 0x4c, 0x3e, 0x18, 0x30, 0x16, 0xbe,
  0xe1, 0x8d, 0xf4, 0xbd, 0xa7, 0x61, 0x8b, 0x3d, 0x75, 0x3e, 0x0f, 0x3f,
  0x1a, 0x1e, 0x80, 0xbe, 0x90, 0xef, 0x43, 0x3e, 0x72, 0x30, 0x77, 0xbe,
  0x3a, 0x84, 0x9d, 0x3b, 0x5e, 0xde, 0xa2, 0xbd, 0xaa, 0x0d, 0xec, 0x3d,
  0x0b, 0x68, 0xf9, 0x3d, 0xbb, 0x63, 0x22, 0xbd, 0x37, 0x40, 0x87, 0xbe,
  0x31, 0xed, 0x03, 0xbe, 0xcd, 0x9c, 0xb5, 0xbd, 0x8d, 0x67, 0x43, 0x3e,
  0xc5, 0x3a, 0x1d, 0xbe, 0xf1, 0x5d, 0xef, 0xbd, 0x84, 0x67, 0xcf, 0x3d,
  0xce, 0x74, 0x11, 0xbe, 0x86, 0x62, 0x5b, 0xbe, 0xf9, 0x3b, 0xb6, 0x3c,
  0xc6, 0x47, 0x21, 0xbd, 0xf8, 0xcc, 0x98, 0xbd, 0x21, 0xe9, 0x42, 0xbe,
  0x05, 0x81, 0x19, 0xbe, 0x70, 0x05, 0xf8, 0x3d, 0x04, 0x42, 0xb6, 0xbd,
  0x4e, 0x95, 0x0f, 0xbe, 0xad, 0xe5, 0xba, 0x3c, 0x90, 0x1f, 0xd9, 0xbd,
  0x36, 0x2d, 0x00, 0x3d, 0x08, 0xcb, 0x08, 0xbe, 0x89, 0x20, 0x3d, 0x3d,
  0xc8, 0xb0, 0xdc, 0xbe, 0x08, 0xfc, 0x82, 0xbe, 0xae, 0x7d, 0x04, 0xbe,
  0x80, 0xfa, 0x01, 0xbe, 0x5b, 0x1e, 0xa3, 0xbe, 0xad, 0x1d, 0x1d, 0xbd,
  0x19, 0xd0, 0x90, 0xbb, 0x8c, 0x4d, 0x45, 0xbe, 0x85, 0xd2, 0x22, 0xbd,
  0x5c, 0x70, 0x04, 0x3e, 0x6b, 0x3e, 0x20, 0x3e, 0xdc, 0x89, 0x3d, 0xbd,
  0x0d, 0xbd, 0xa4, 0xbe, 0x78, 0x29, 0x83, 0x3e, 0x01, 0xd9, 0x0b, 0xbc,
  0xba, 0x3c, 0x9a, 0xbc, 0xa2, 0xe5, 0xaf, 0xbe, 0xe7, 0x13, 0x3f, 0xbe,
  0x57, 0xb7, 0x8d, 0x3d, 0x3d, 0x52, 0xef, 0x3c, 0xcd, 0xf8, 0xe0, 0xbe,
  0xd9, 0x67, 0x3b, 0x3e, 0x20, 0x4c, 0x9c, 0x3c, 0x7d, 0xc4, 0x38, 0xbe,
  0x6e, 0x13, 0xb2, 0xbc, 0x85, 0x33, 0x73, 0xbd, 0xd4, 0x30, 0x05, 0x3d,
  0x45, 0xd9, 0x0e, 0x3e, 0x8b, 0x0b, 0x65, 0xbe, 0xe0, 0xc4, 0x3f, 0x3d,
  0xed, 0xb4, 0x0f, 0xbf, 0x0c, 0xae, 0xd1, 0xbe, 0xde, 0x88, 0x67, 0xbe,
  0x58, 0x36, 0x5b, 0xbe, 0x9f, 0x78, 0x01, 0xbf, 0xd8, 0x04, 0x67, 0xbd,
  0xc9, 0x47, 0xe7, 0xbd, 0x1d, 0x48, 0x7b, 0xbe, 0xfa, 0xed, 0xe2, 0xbe,
  0xa1, 0xfa, 0x36, 0xbc, 0x6f, 0x28, 0x24, 0xbd, 0x70, 0xaf, 0x24, 0x3e,
  0x39, 0x8c, 0xe4, 0xbe, 0x45, 0xb4, 0x64, 0x3d, 0x98, 0x7f, 0xda, 0xbd,
  0x1d, 0x0e, 0xd8, 0xbd, 0x98, 0x74, 0x6b, 0xbe, 0x23, 0xfa, 0xf4, 0x3e,
  0x5a, 0x4b, 0x16, 0x3e, 0xaa, 0xed, 0xf0, 0xbd, 0x87, 0xee, 0xe7, 0xbe,
  0xe1, 0xb1, 0x02, 0xbe, 0xfb, 0x39, 0xee, 0x3d, 0x8c, 0xfd, 0x81, 0x3e,
  0xbe, 0x5d, 0x44, 0xbe, 0x56, 0xf6, 0xd4, 0x3d, 0x97, 0xd7, 0x37, 0x3e,
  0x4b, 0x6b, 0x35, 0xbc, 0x45, 0xbf, 0xea, 0xbe, 0x4a, 0x50, 0x1d, 0xbe,
  0xbb, 0x46, 0x2c, 0x3c, 0x81, 0x69, 0xdb, 0x3d, 0x29, 0x56, 0x6d, 0x3d,
  0x43, 0x25, 0x4a, 0xbd, 0x08, 0xfc, 0x3d, 0xbe, 0x6c, 0xca, 0x40, 0xbe,
  0xd8, 0x2b, 0x95, 0xbd, 0xcb, 0xad, 0x49, 0xbe, 0xf5, 0x55, 0xb4, 0xbe,
  0x33, 0xa0, 0x7b, 0x3e, 0x40, 0x9a, 0x05, 0x3b, 0xa5, 0x5c, 0xc6, 0xbd,
  0x1e, 0xd0, 0x14, 0x3d, 0xd0, 0x6d, 0xca, 0xbe, 0xef, 0xb2, 0xd3, 0xbd,
  0x38, 0xeb, 0xaa, 0xbd, 0xb2, 0xc4, 0x74, 0xbe, 0x90, 0xb6, 0x1c, 0x3e,
  0x90, 0x74, 0x8c, 0x3c, 0x6b, 0xcd, 0x4e, 0xbe, 0x93, 0x0c, 0x5f, 0xbe,
  0x1b, 0x6b, 0x87, 0xbe, 0xf8, 0x39, 0x28, 0xbe, 0xfb, 0x04, 0x70, 0x3b,
  0x8b, 0xa4, 0x51, 0xbe, 0xd5, 0xf6, 0xc1, 0xbe, 0x83, 0x41, 0x22, 0xbe,
  0xa5, 0x68, 0x8e, 0x3d, 0xb4, 0x66, 0x93, 0xbe, 0x5d, 0xc8, 0xab, 0xbe,
  0x07, 0x5f, 0x98, 0xbe, 0x20, 0x9b, 0xcc, 0xbe, 0xf0, 0x37, 0x03, 0xbd,
  0x1a, 0x63, 0x25, 0xbe, 0xc5, 0xa3, 0x9e, 0x3b, 0x04, 0xe2, 0x9c, 0xbe,
  0xf2, 0xc0, 0x5f, 0x3e, 0xda, 0xb6, 0x18, 0xbd, 0x5d, 0xc7, 0x53, 0xbe,
  0xab, 0x07, 0x25, 0xbe, 0x6e, 0x53, 0x3b, 0x3e, 0x82, 0x8e, 0xd7, 0x3d,
  0x6a, 0xcd, 0x93, 0xbe, 0x4c, 0x7a, 0x03, 0xbf, 0x02, 0x13, 0xc8, 0xbd,
  0x9b, 0x13, 0xa0, 0xba, 0xc8, 0x0d, 0xfa, 0x3c, 0x4d, 0x32, 0xaf, 0xbe,
  0x69, 0xd6, 0x00, 0xbe, 0xbf, 0x3f, 0xb1, 0xbd, 0x1f, 0xe0, 0x99, 0xbe,
  0x09, 0x81, 0x82, 0x3d, 0x49, 0xdb, 0x8f, 0xbd, 0x7e, 0xf7, 0x33, 0x3d,
  0x44, 0x72, 0x3e, 0x3e, 0xe1, 0xc1, 0xa4, 0xbe, 0x8f, 0xf6, 0x38, 0xbe,
  0x01, 0x60, 0x1e, 0xbf, 0x60, 0x83, 0x94, 0x3d, 0x28, 0x6d, 0x3e, 0x3e,
  0x36, 0x89, 0xcf, 0x3d, 0xc0, 0xc1, 0x03, 0x3d, 0x4c, 0xd9, 0x1b, 0x3e,
  0xe9, 0xa8, 0x10, 0x3c, 0x00, 0x77, 0x2b, 0xbe, 0x8b, 0x4c, 0x31, 0x3e,
  0xf3, 0xdf, 0xa5, 0x3a, 0x3c, 0x0e, 0xa8, 0x3d, 0x5d, 0x07, 0x11, 0xbd,
  0x08, 0x5d, 0x02, 0x3d, 0x09, 0x51, 0x8f, 0x3d, 0xf3, 0xfa, 0xfb, 0x3d,
  0x48, 0x8e, 0x88, 0xbe, 0x4e, 0xab, 0x4d, 0x3c, 0x1f, 0xc7, 0x0c, 0x3c,
  0x62, 0x02, 0x11, 0x3d, 0xe3, 0x91, 0xa4, 0xbc, 0x53, 0x05, 0xf9, 0xbb,
  0xca, 0x77, 0x27, 0xbe, 0x40, 0x53, 0x98, 0x3e, 0x66, 0xb1, 0x98, 0xbe,
  0xc9, 0x07, 0xec, 0x3d, 0xd4, 0x0a, 0x46, 0xbd, 0x7e, 0x85, 0x21, 0x3d,
  0x55, 0x6a, 0x7f, 0xbc, 0xb5, 0x69, 0xc4, 0x3d, 0x0f, 0x7a, 0x74, 0x3d,
  0x38, 0x19, 0x88, 0x3d, 0xa0, 0x0a, 0x8e, 0xbe, 0xa7, 0x36, 0x55, 0x3e,
  0xc5, 0x04, 0xd2, 0xbd, 0x11, 0x45, 0x39, 0x3d, 0x15, 0x77, 0x9c, 0x3d,
  0x61, 0x52, 0xc4, 0x3d, 0x26, 0xef, 0x67, 0xbd, 0x8b, 0x49, 0x29, 0x3e,
  0x42, 0xe0, 0xc8, 0xbe, 0xbf, 0x76, 0xd7, 0x3d, 0x8f, 0x92, 0x27, 0xbd,
  0x0b, 0x11, 0x5c, 0x3e, 0x4b, 0x04, 0x6a, 0xbe, 0x4b, 0x0d, 0x68, 0xbe,
  0xe0, 0x95, 0x69, 0xbe, 0xb1, 0xa2, 0x03, 0xbe, 0xd8, 0x06, 0x01, 0xbe,
  0x60, 0x09, 0xa3, 0x3d, 0x0c, 0x19, 0xb0, 0xbd, 0x5a, 0xb1, 0x5c, 0xbe,
  0xe1, 0xe9, 0xc1, 0xbd, 0xfc, 0x0d, 0x98, 0xbe, 0x3d, 0x29, 0xf1, 0xbd,
  0xf2, 0x6e, 0x8c, 0xbe, 0xaf, 0x34, 0x1b, 0x3e, 0x88, 0x36, 0x41, 0xbe,
  0x18, 0xcb, 0xae, 0xbd, 0x30, 0xfd, 0x96, 0xbe, 0x3b, 0x52, 0x75, 0xbe,
  0xf9, 0x7d, 0x93, 0xbe, 0x11, 0xd1, 0x05, 0xbe, 0xa4, 0xc6, 0x3a, 0xbe,
  0x92, 0xf0, 0xa6, 0x3c, 0x5f, 0x2c, 0x23, 0xbe, 0xa9, 0xba, 0x8b, 0x3d,
  0xa7, 0xac, 0x07, 0xbe, 0xc8, 0x03, 0x91, 0xbd, 0xe5, 0x1a, 0x39, 0x3e,
  0xa7, 0xb0, 0xa6, 0xbc, 0xff, 0xe9, 0x10, 0xbe, 0x3e, 0xe9, 0x4e, 0xbe,
  0x3d, 0x28, 0x03, 0xbe, 0xdc, 0x32, 0x09, 0x3d, 0x30, 0x5f, 0xcd, 0xbd,
  0x2d, 0x17, 0x34, 0xbe, 0x74, 0x9d, 0x80, 0xbe, 0xe4, 0x52, 0x0e, 0x3e,
  0x3a, 0xa8, 0x35, 0x3d, 0x06, 0xa2, 0x0e, 0xbe, 0x62, 0x53, 0x4a, 0xbd,
  0x12, 0xc0, 0x08, 0x3d, 0x91, 0xfb, 0xa0, 0xbd, 0x2e, 0x48, 0x5b, 0x3c,
  0x6c, 0xb0, 0x34, 0xbe, 0x77, 0x63, 0xa1, 0x3b, 0x69, 0xc1, 0xc7, 0xbd,
  0xe2, 0xdd, 0xc5, 0xbd, 0x28, 0x13, 0xc9, 0x3c, 0xfd, 0x78, 0x87, 0x3d,
  0xf7, 0xed, 0xde, 0xbc, 0x7d, 0x2f, 0x57, 0x3e, 0x89, 0xb9, 0xd1, 0xbd,
  0x03, 0x3a, 0xc0, 0xbd, 0xf5, 0x21, 0x88, 0xbe, 0x32, 0x44, 0xd9, 0x3d,
  0x00, 0x44, 0xd7, 0xbc, 0x01, 0xd0, 0xbe, 0xbd, 0xec, 0x20, 0x41, 0x3e,
  0xb8, 0x3c, 0xec, 0x3e, 0x53, 0x06, 0x70, 0x3e, 0x11, 0x3a, 0x5b, 0xbd,
  0x3e, 0x3e, 0x4a, 0xbe, 0xdf, 0x8d, 0xbc, 0xbc, 0xfe, 0x78, 0xae, 0xbe,
  0x9f, 0x00, 0x0e, 0x3e, 0x30, 0xc6, 0xdd, 0xbc, 0xa3, 0x7d, 0x91, 0x3c,
  0x11, 0x5e, 0xc9, 0xbd, 0x28, 0xd0, 0x11, 0x3e, 0xbf, 0x21, 0xcc, 0xbd,
  0xe9, 0x68, 0x55, 0xbc, 0xb1, 0x89, 0x67, 0x3e, 0xa2, 0xc9, 0x11, 0x3e,
  0xc1, 0xa1, 0x3f, 0xbe, 0x03, 0x50, 0x8e, 0x3d, 0xeb, 0xca, 0x92, 0xbe,
  0xf9, 0xbf, 0x16, 0x3e, 0x75, 0x10, 0xf1, 0xbd, 0x7c, 0xbe, 0x45, 0xbc,
  0xc5, 0x28, 0x74, 0x3d, 0x93, 0xd9, 0x3f, 0xbd, 0x29, 0x46, 0xc8, 0xbe,
  0xaa, 0x27, 0x17, 0x3e, 0xb7, 0x94, 0xb1, 0xbd, 0xdf, 0x57, 0x40, 0xbd,
  0x2d, 0xa1, 0x80, 0xbe, 0x81, 0xce, 0x4d, 0x3c, 0xdf, 0x72, 0x43, 0x3e,
  0xb7, 0x83, 0x56, 0xbe, 0x6d, 0x53, 0xdb, 0xbe, 0x04, 0x8e, 0x60, 0xbd,
  0x06, 0x45, 0x6a, 0x3e, 0xc5, 0x39, 0xf4, 0xbd, 0x09, 0xf4, 0x81, 0xbe,
  0x1c, 0x57, 0x66, 0xbd, 0x0a, 0x4b, 0xa2, 0xbe, 0xda, 0xb6, 0x61, 0xbe,
  0xf1, 0x1d, 0xb8, 0x3e, 0x69, 0x44, 0x2d, 0x3e, 0xa4, 0xd7, 0xa6, 0xbd,
  0x5d, 0x2b, 0x47, 0xbd, 0xe2, 0xbf, 0x3c, 0xbd, 0x97, 0xab, 0x14, 0xbd,
  0x1d, 0x40, 0x46, 0xbe, 0xf4, 0x12, 0xe1, 0xbd, 0x4c, 0xf4, 0x06, 0x3e,
  0x10, 0x34, 0xa6, 0x3c, 0x0f, 0xe7, 0x40, 0x3e, 0xab, 0x67, 0x7d, 0xbc,
  0x79, 0x0b, 0x4d, 0xbc, 0x11, 0x74, 0x9e, 0x3d, 0xe8, 0x37, 0xf1, 0xbc,
  0x3d, 0xbb, 0xb4, 0xbd, 0x3f, 0x2d, 0xb4, 0xbd, 0x04, 0x24, 0x43, 0xbd,
  0x3a, 0x53, 0x7f, 0xbe, 0x2b, 0xa3, 0x94, 0x3b, 0xfb, 0x95, 0x14, 0xbd,
  0x69, 0x8c, 0xce, 0xbc, 0x4c, 0x5f, 0x99, 0x3d, 0x93, 0x18, 0xc7, 0x3d,
  0x19, 0x39, 0xe3, 0xbd, 0x60, 0x34, 0x6a, 0xbd, 0xc9, 0x72, 0x90, 0xbe,
  0xc7, 0x0d, 0xf4, 0xbc, 0x06, 0xbd, 0x64, 0xbd, 0x92, 0x4d, 0xfa, 0xbd,
  0x69, 0x61, 0x72, 0x3e, 0xcf, 0x8d, 0xd7, 0xbd, 0xa9, 0x6c, 0x36, 0x3e,
  0xd8, 0xcd, 0x57, 0xbd, 0x49, 0xb7, 0xf9, 0x3d, 0x11, 0xd8, 0x8f, 0xbd,
  0x3c, 0x8b, 0x57, 0xbe, 0x58, 0xff, 0x50, 0x3a, 0x7b, 0x36, 0x86, 0xbe,
  0x55, 0x38, 0x07, 0xbe, 0xf5, 0x60, 0x8d, 0xbd, 0x6b, 0x12, 0x04, 0x3d,
  0xa3, 0x4c, 0xe5, 0xbb, 0xf9, 0x89, 0x27, 0xbe, 0xa7, 0x3b, 0x14, 0xbe,
  0x1f, 0x80, 0xdb, 0x3c, 0x8e, 0x8b, 0x88, 0xbe, 0x34, 0x39, 0x61, 0xbd,
  0xe3, 0x54, 0x84, 0x3d, 0xe1, 0xce, 0xfc, 0x3e, 0x55, 0x1c, 0xfb, 0x3b,
  0xe3, 0xfe, 0xee, 0xbd, 0xed, 0x1e, 0xc5, 0xbd, 0x1b, 0x58, 0xf1, 0xbc,
  0x2f, 0x88, 0xcf, 0xbd, 0x69, 0x62, 0x95, 0x3e, 0xf8, 0x65, 0x12, 0x3e,
  0x64, 0x60, 0xda, 0xbd, 0x5d, 0x2d, 0x28, 0xbe, 0xf0, 0x23, 0xa7, 0x3b,
  0xde, 0x4f, 0x77, 0xbd, 0x59, 0x45, 0x2d, 0xbd, 0x63, 0xac, 0xbb, 0x3d,
  0xc6, 0xde, 0xff, 0xff, 0x10, 0x00, 0x00, 0x00, 0x08, 0x00, 0x00, 0x00,
  0x1c, 0x00, 0x00, 0x00, 0x38, 0x00, 0x00, 0x00, 0x04, 0x00, 0x00, 0x00,
  0x10, 0x00, 0x00, 0x00, 0x04, 0x00, 0x00, 0x00, 0x01, 0x00, 0x00, 0x00,
  0x08, 0x00, 0x00, 0x00, 0x1a, 0x00, 0x00, 0x00, 0x73, 0x65, 0x71, 0x75,
  0x65, 0x6e, 0x74, 0x69, 0x61, 0x6c, 0x2f, 0x63, 0x6f, 0x6e, 0x76, 0x32,
  0x64, 0x5f, 0x31, 0x2f, 0x43, 0x6f, 0x6e, 0x76, 0x32, 0x44, 0x00, 0x00,
  0xc0, 0xde, 0xff, 0xff, 0xb6, 0xdf, 0xff, 0xff, 0x04, 0x00, 0x00, 0x00,
  0x80, 0x01, 0x00, 0x00, 0x96, 0xe8, 0x70, 0xbe, 0xbf, 0xdf, 0x7d, 0xbd,
  0xf2, 0xcb, 0x28, 0x3d, 0x2f, 0xac, 0x1c, 0xbe, 0x0d, 0x47, 0x00, 0xbd,
  0x66, 0x81, 0x9d, 0xbd, 0x3b, 0x70, 0x29, 0xbe, 0xb6, 0x0e, 0x32, 0xbd,
  0x8c, 0xcc, 0xe2, 0x3c, 0xbd, 0x57, 0xed, 0x3d, 0xca, 0x21, 0xe4, 0xbd,
  0xf0, 0xfc, 0x69, 0xbd, 0xba, 0x38, 0x9a, 0x3e, 0x80, 0xec, 0x37, 0xbd,
  0x4b, 0x19, 0x4a, 0xbe, 0xb8, 0x65, 0x04, 0x3e, 0xef, 0x28, 0x63, 0x3c,
  0xcf, 0xf7, 0xcb, 0xbd, 0x5e, 0xbf, 0xd8, 0xbd, 0xc1, 0x78, 0x47, 0x3c,
  0xf6, 0x11, 0x8b, 0xbd, 0xed, 0x40, 0x47, 0xbe, 0xf8, 0xab, 0x94, 0xbd,
  0xee, 0x81, 0xa4, 0x3e, 0xc1, 0x87, 0x18, 0xbd, 0xb1, 0xc1, 0xa3, 0x3e,
  0xe1, 0x24, 0xc2, 0xbe, 0xe4, 0xaf, 0xa4, 0xbd, 0x33, 0xc8, 0xd9, 0xbd,
  0xaf, 0x6d, 0x05, 0xbd, 0xbc, 0x7a, 0x09, 0xbd, 0x4b, 0x38, 0x63, 0xbe,
  0xa7, 0x12, 0x3c, 0x3e, 0x02, 0x70, 0x35, 0x3e, 0xfc, 0x7e, 0x3f, 0xbd,
  0x51, 0x28, 0x39, 0x3e, 0xb9, 0x84, 0x74, 0x3e, 0xc1, 0x6e, 0xa6, 0xbd,
  0xd3, 0x3d, 0xba, 0x3e, 0xdc, 0x06, 0x3e, 0xbd, 0x3e, 0x3d, 0xee, 0x3d,
  0x65, 0x74, 0xb2, 0xbe, 0x92, 0x69, 0x7f, 0x3c, 0x1a, 0xf9, 0x67, 0x3d,
  0x86, 0xaa, 0x50, 0xbb, 0xb3, 0x26, 0x05, 0xbd, 0x7d, 0x0a, 0x14, 0xbe,
  0x03, 0x81, 0x18, 0xbd, 0xf4, 0x8b, 0x75, 0x3e, 0x84, 0x08, 0x02, 0xbe,
  0x5e, 0xd3, 0xa7, 0xbd, 0xf1, 0xd3, 0x95, 0x3e, 0x1a, 0xb7, 0x0e, 0xbe,
  0x56, 0x64, 0x54, 0xbd, 0x79, 0xd9, 0xa8, 0x3d, 0x2c, 0xd1, 0xa3, 0xbd,
  0x3c, 0x1d, 0xcf, 0x3d, 0x73, 0x20, 0x66, 0xbe, 0x92, 0x15, 0x40, 0xbc,
  0xb4, 0x5f, 0xb3, 0xbd, 0xce, 0x4a, 0xeb, 0x3e, 0xbc, 0x79, 0x88, 0xbd,
  0xdd, 0x1d, 0x88, 0xbe, 0xc7, 0x61, 0xc5, 0xbe, 0xae, 0x97, 0x0c, 0x3e,
  0xb6, 0x4e, 0x49, 0x3e, 0xbc, 0x64, 0x03, 0xbd, 0xc0, 0xef, 0x49, 0xbe,
  0x70, 0x95, 0xe5, 0xbd, 0x2d, 0x7f, 0xb5, 0x3e, 0x9f, 0xa9, 0xe5, 0x3c,
  0x08, 0xb9, 0x2c, 0xbd, 0x37, 0x56, 0xc2, 0xbc, 0x27, 0xde, 0xbd, 0xbd,
  0x07, 0x20, 0x59, 0xbc, 0x75, 0xea, 0x0f, 0x3a, 0x05, 0xd7, 0xf8, 0x3b,
  0x11, 0x7b, 0x60, 0xbc, 0x84, 0xd9, 0xce, 0x3c, 0x5a, 0x2f, 0x07, 0x3e,
  0x5a, 0x12, 0xdc, 0x3b, 0x5c, 0x9b, 0x97, 0x3c, 0x8b, 0xd1, 0xb7, 0x3d,
  0xfa, 0xf1, 0x76, 0x3c, 0x54, 0xd9, 0x36, 0x3c, 0xfd, 0xbf, 0x88, 0x3d,
  0x0a, 0x02, 0x3a, 0xbe, 0x36, 0x76, 0x81, 0xbe, 0x8f, 0x8e, 0x32, 0xbe,
  0xca, 0xbe, 0x87, 0x3c, 0x5e, 0xe2, 0x46, 0xbe, 0x77, 0xe7, 0x45, 0xbe,
  0xc2, 0x6b, 0x91, 0xbc, 0x02, 0x47, 0x10, 0x3e, 0x0e, 0x12, 0xf9, 0x3d,
  0xe9, 0x72, 0x84, 0x3d, 0x9e, 0xe0, 0xff, 0xff, 0x10, 0x00, 0x00, 0x00,
  0x07, 0x00, 0x00, 0x00, 0x1c, 0x00, 0x00, 0x00, 0x38, 0x00, 0x00, 0x00,
  0x04, 0x00, 0x00, 0x00, 0x08, 0x00, 0x00, 0x00, 0x04, 0x00, 0x00, 0x00,
  0x03, 0x00, 0x00, 0x00, 0x01, 0x00, 0x00, 0x00, 0x18, 0x00, 0x00, 0x00,
  0x73, 0x65, 0x71, 0x75, 0x65, 0x6e, 0x74, 0x69, 0x61, 0x6c, 0x2f, 0x63,
  0x6f, 0x6e, 0x76, 0x32, 0x64, 0x2f, 0x43, 0x6f, 0x6e, 0x76, 0x32, 0x44,
  0x00, 0x00, 0x00, 0x00, 0x98, 0xe0, 0xff, 0xff, 0x8e, 0xe1, 0xff, 0xff,
  0x04, 0x00, 0x00, 0x00, 0x00, 0x01, 0x00, 0x00, 0x54, 0xef, 0x02, 0x3e,
  0xe2, 0xb4, 0x71, 0x3d, 0x31, 0xcd, 0x9a, 0x3e, 0x4d, 0xa4, 0x9c, 0xbc,
  0xd9, 0x9f, 0x72, 0x3e, 0x00, 0xba, 0x7e, 0x3c, 0xc4, 0x5d, 0x15, 0xbd,
  0x82, 0x6d, 0x50, 0x3e, 0xd2, 0xae, 0x53, 0x3e, 0xa4, 0x46, 0xad, 0xbe,
  0x90, 0x84, 0xfb, 0xbc, 0x7e, 0xff, 0x71, 0x3e, 0xc6, 0x66, 0xf8, 0xbc,
  0x1a, 0xdd, 0x88, 0x3e, 0x62, 0x59, 0xc9, 0xbd, 0x9f, 0xda, 0x3a, 0xbe,
  0x73, 0xff, 0x50, 0x3e, 0x32, 0x67, 0x01, 0x3e, 0x5f, 0x43, 0xd6, 0x3e,
  0x6f, 0x3f, 0xc4, 0x3d, 0xa3, 0x7e, 0xb2, 0xbe, 0x38, 0x7c, 0x10, 0xbd,
  0x83, 0x3f, 0x30, 0xbe, 0x06, 0x22, 0x87, 0x3e, 0x82, 0xaf, 0x55, 0xbe,
  0x7d, 0xa9, 0x54, 0xbe, 0x4d, 0xea, 0x94, 0xbf, 0x23, 0x22, 0x11, 0x3e,
  0x9f, 0xbb, 0xf0, 0x3b, 0x93, 0x78, 0x23, 0xbd, 0x66, 0x78, 0x74, 0xbd,
  0x3d, 0x26, 0x90, 0xbe, 0x28, 0x5e, 0x19, 0x3e, 0xef, 0xdf, 0x54, 0x3e,
  0x90, 0x31, 0xcf, 0x3e, 0x19, 0x47, 0xdc, 0x3d, 0xc7, 0x7f, 0x2b, 0xbe,
  0x5b, 0x2c, 0x69, 0x3d, 0x67, 0x5e, 0x0b, 0xbe, 0x8e, 0xf4, 0x8f, 0x3e,
  0x63, 0x5a, 0x16, 0xbe, 0x78, 0x5b, 0x04, 0xbe, 0x20, 0x09, 0x40, 0xbf,
  0x2b, 0x81, 0xab, 0x3d, 0xd6, 0xb8, 0x17, 0xbd, 0xbd, 0x2a, 0x35, 0xbe,
  0x3d, 0x6c, 0x51, 0x3d, 0x56, 0x02, 0x52, 0xbe, 0x05, 0x1c, 0x90, 0x3c,
  0x63, 0x1a, 0x89, 0x3e, 0x03, 0x47, 0x24, 0x3e, 0x23, 0x78, 0x17, 0x3e,
  0x7e, 0x8c, 0xb7, 0xbe, 0x7c, 0x4d, 0xf0, 0xbd, 0xbb, 0x33, 0xfe, 0xbe,
  0x9d, 0xfe, 0xa0, 0x3d, 0x0f, 0xbe, 0xb7, 0xbe, 0xc1, 0x31, 0xd0, 0xbe,
  0x25, 0x8a, 0x3e, 0x3e, 0xc2, 0xdd, 0x0d, 0xbe, 0x73, 0x3b, 0xa3, 0xbe,
  0xe5, 0x49, 0x4e, 0x3e, 0x73, 0x58, 0x8a, 0x3d, 0x38, 0xa4, 0xaa, 0xbe,
  0xf6, 0xe1, 0xff, 0xff, 0x10, 0x00, 0x00, 0x00, 0x06, 0x00, 0x00, 0x00,
  0x14, 0x00, 0x00, 0x00, 0x30, 0x00, 0x00, 0x00, 0x02, 0x00, 0x00, 0x00,
  0x04, 0x00, 0x00, 0x00, 0x10, 0x00, 0x00, 0x00, 0x19, 0x00, 0x00, 0x00,
  0x73, 0x65, 0x71, 0x75, 0x65, 0x6e, 0x74, 0x69, 0x61, 0x6c, 0x2f, 0x64,
  0x65, 0x6e, 0x73, 0x65, 0x5f, 0x31, 0x2f, 0x4d, 0x61, 0x74, 0x4d, 0x75,
  0x6c, 0x00, 0x00, 0x00, 0xe8, 0xe1, 0xff, 0xff, 0xde, 0xe2, 0xff, 0xff,
  0x04, 0x00, 0x00, 0x00, 0x00, 0x1c, 0x00, 0x00, 0xc0, 0xb8, 0xa4, 0xbe,
  0x0d, 0x32, 0x6e, 0xbe, 0x78, 0x3b, 0x07, 0xbf, 0x1d, 0x02, 0x89, 0x3e,
  0x37, 0x99, 0x3c, 0xbe, 0x63, 0x75, 0x99, 0xbe, 0x79, 0x61, 0x2b, 0xbe,
  0xa1, 0x00, 0xab, 0xbe, 0x37, 0x48, 0x3e, 0x3d, 0x01, 0x52, 0x0d, 0x3e,
  0x95, 0x32, 0x8c, 0xbc, 0xd0, 0x79, 0x07, 0xbd, 0xef, 0xaa, 0x30, 0x3d,
  0x17, 0xa8, 0x16, 0x3e, 0x69, 0x32, 0xf6, 0xbd, 0x63, 0x67, 0xbc, 0xbc,
  0x09, 0xd2, 0x79, 0x3e, 0xe1, 0x5a, 0x21, 0x3d, 0x16, 0xab, 0x99, 0xbe,
  0x50, 0x46, 0x53, 0x3e, 0x08, 0xc8, 0x9b, 0x3d, 0x24, 0xea, 0xc4, 0xbd,
  0x3b, 0x47, 0x88, 0xbd, 0x06, 0xe3, 0x8f, 0x3d, 0x1a, 0x63, 0x3a, 0xbe,
  0x37, 0x70, 0x88, 0x3e, 0x81, 0xc5, 0x56, 0xbe, 0x0f, 0x74, 0x4b, 0xbe,
  0xfc, 0x6c, 0x11, 0xbe, 0xa1, 0x2c, 0x89, 0x3e, 0xcd, 0x0e, 0x22, 0xbe,
  0xad, 0x24, 0xf3, 0x3c, 0x6d, 0x9c, 0xe6, 0x3c, 0xb0, 0xd3, 0x0f, 0x3e,
  0x48, 0x83, 0x61, 0xbd, 0x0f, 0xbb, 0xe5, 0x3c, 0x97, 0xb8, 0x71, 0xbb,
  0xe2, 0x38, 0x8d, 0xbe, 0xc0, 0xf4, 0x5b, 0xbc, 0x47, 0x4c, 0x18, 0x3e,
  0x84, 0x66, 0x86, 0xbd, 0x34, 0xa8, 0x07, 0x3f, 0x2a, 0x23, 0x1e, 0xbd,
  0xf7, 0x5c, 0x8d, 0xbe, 0xb0, 0x5e, 0x32, 0xbe, 0xac, 0x51, 0xb0, 0xbd,
  0xd7, 0xd6, 0x19, 0x3d, 0x5e, 0x63, 0xf2, 0x3c, 0xda, 0x8e, 0x11, 0x3d,
  0x1b, 0x11, 0x9a, 0x3d, 0x50, 0xdc, 0x93, 0x3d, 0xc6, 0x63, 0x62, 0xbd,
  0x25, 0xd4, 0x24, 0xbe, 0x82, 0xd8, 0x3f, 0xbe, 0x19, 0x18, 0x2d, 0x3e,
  0xae, 0xdd, 0x32, 0x3d, 0x65, 0x8a, 0x6c, 0xbd, 0x54, 0x5d, 0xa7, 0xba,
  0x1f, 0x04, 0x20, 0xbe, 0xb7, 0x3e, 0x8b, 0x3c, 0x32, 0x15, 0x72, 0xbe,
  0x17, 0xf4, 0x52, 0xbe, 0x8c, 0xf2, 0x06, 0x3e, 0x31, 0x8e, 0x01, 0x3e,
  0x90, 0xe8, 0x6c, 0xbe, 0x22, 0xf2, 0x85, 0x3d, 0xab, 0x23, 0x98, 0x3d,
  0x06, 0x95, 0xe0, 0x3b, 0x7d, 0xde, 0x81, 0xbd, 0xa5, 0x07, 0x92, 0xbd,
  0x03, 0xca, 0xee, 0x3d, 0x7a, 0x26, 0x6c, 0xbe, 0x52, 0xe1, 0xa5, 0x3d,
  0x09, 0xa3, 0x03, 0x3e, 0x5c, 0x72, 0x75, 0xbd, 0x42, 0x32, 0xcc, 0xbd,
  0x10, 0xfa, 0x15, 0xbe, 0xa2, 0x55, 0x25, 0xbe, 0xb1, 0x62, 0x0c, 0xbd,
  0x10, 0xfc, 0xc9, 0xbc, 0xa5, 0x04, 0x09, 0xbe, 0x10, 0x49, 0x7a, 0xbd,
  0xf3, 0x46, 0x0c, 0x3d, 0xb9, 0xe8, 0x46, 0xbe, 0x3b, 0xc2, 0x6d, 0xbe,
  0x89, 0x10, 0x48, 0xbe, 0x78, 0xf9, 0x25, 0xbe, 0x85, 0x23, 0xdb, 0x3d,
  0xb8, 0x51, 0xed, 0xbd, 0xe7, 0xfe, 0xbc, 0xbd, 0x48, 0xd0, 0x62, 0xbd,
  0x96, 0x7a, 0xae, 0xbd, 0x73, 0xd8, 0xd5, 0xbd, 0xe0, 0xa6, 0xd4, 0xbd,
  0x97, 0x79, 0xda, 0x3d, 0xdd, 0x84, 0x54, 0xbe, 0x59, 0x35, 0x8e, 0xbe,
  0xcc, 0xd6, 0xb5, 0xbb, 0xcc, 0xed, 0xa6, 0xb9, 0x4a, 0xc1, 0x36, 0xbe,
  0x78, 0x63, 0xc9, 0xbd, 0xe8, 0xac, 0x80, 0xbd, 0x68, 0x2b, 0x4c, 0x3e,
  0xb5, 0x59, 0x30, 0xbe, 0x3d, 0x62, 0xc8, 0x3c, 0x8c, 0x4c, 0x6f, 0xbd,
  0x28, 0x65, 0xee, 0xbd, 0xd4, 0x5b, 0xdd, 0xbd, 0x65, 0xa5, 0xd0, 0xbc,
  0x36, 0x9e, 0x83, 0x3a, 0x35, 0x79, 0x96, 0x3c, 0xa8, 0x61, 0x15, 0xbb,
  0x4b, 0xfc, 0x8c, 0x3e, 0x0c, 0x24, 0x70, 0x3e, 0x53, 0x9c, 0x9b, 0x3d,
  0xfb, 0x03, 0x38, 0xbe, 0x1c, 0x57, 0xa0, 0x3d, 0x37, 0xcc, 0x3f, 0x3e,
  0x9d, 0xab, 0x9f, 0x3e, 0x01, 0xf7, 0xd9, 0x3e, 0x42, 0x5d, 0xfe, 0xbe,
  0xc9, 0xb1, 0x86, 0x3d, 0x6f, 0x6b, 0xd3, 0x3d, 0x2f, 0x9e, 0x92, 0xbb,
  0x2a, 0xdb, 0xfd, 0xbd, 0x5e, 0x52, 0x64, 0xbe, 0x94, 0x1a, 0x69, 0xbd,
  0xbb, 0x55, 0x56, 0xbe, 0x2d, 0xd7, 0x50, 0x3e, 0x7d, 0x23, 0xa3, 0x3e,
  0xf2, 0x13, 0x93, 0x3d, 0x24, 0x44, 0x97, 0xbd, 0xc2, 0x3c, 0xdc, 0x3d,
  0xf0, 0xc9, 0x8c, 0x3e, 0x7a, 0x02, 0xa4, 0x3d, 0x83, 0x10, 0x8f, 0x3c,
  0x5e, 0x47, 0x81, 0x3e, 0xbe, 0x3f, 0x60, 0x3d, 0x78, 0x30, 0x87, 0x3d,
  0xf7, 0x7c, 0x07, 0x3e, 0x63, 0xbd, 0xfd, 0xbd, 0xfe, 0x70, 0x61, 0xbd,
  0x2e, 0x08, 0x04, 0xbe, 0x99, 0x43, 0xb0, 0xbd, 0x6c, 0x3f, 0x39, 0x3e,
  0xba, 0x81, 0xa1, 0x3d, 0x94, 0x96, 0x4e, 0x3d, 0xc6, 0x4f, 0x66, 0xbe,
  0xcf, 0x2b, 0x04, 0xbd, 0x33, 0xb6, 0x5e, 0x3e, 0x68, 0xf0, 0x2f, 0xbc,
  0x77, 0x85, 0x90, 0xbd, 0xdc, 0x9a, 0x63, 0xbe, 0x81, 0xd4, 0xb4, 0x3d,
  0xe3, 0xb2, 0x3a, 0x3d, 0xae, 0x00, 0x94, 0x3e, 0xef, 0x17, 0xe9, 0xbc,
  0x08, 0x21, 0xfa, 0xbd, 0xc5, 0xe1, 0xe5, 0xbc, 0xf6, 0x6b, 0x91, 0xbe,
  0x61, 0x43, 0x58, 0x3e, 0xb7, 0xd0, 0xfb, 0xbc, 0x6e, 0x8b, 0x1b, 0x3c,
  0x8a, 0xbd, 0x4c, 0xbd, 0x3b, 0x03, 0xea, 0xbc, 0x3c, 0x9b, 0x68, 0x3e,
  0xb7, 0xa1, 0x01, 0xbc, 0xd5, 0x24, 0xa8, 0x3d, 0xb3, 0x73, 0x1d, 0x3f,
  0x61, 0xa7, 0x1e, 0x3e, 0xcd, 0x85, 0x91, 0x3d, 0xd7, 0x83, 0x05, 0x3d,
  0xcb, 0x30, 0xad, 0xbd, 0x48, 0x42, 0x4f, 0xbd, 0xc7, 0x32, 0x69, 0xbd,
  0x09, 0xa3, 0x37, 0x3c, 0xff, 0x79, 0x5a, 0x3e, 0xfb, 0x49, 0x96, 0x3e,
  0x34, 0xb8, 0xfd, 0xbb, 0x4a, 0x7b, 0x39, 0x3d, 0xda, 0x11, 0xe5, 0xbd,
  0x25, 0x79, 0x96, 0x3e, 0xf0, 0x49, 0x06, 0xbc, 0x47, 0xdc, 0x26, 0x3d,
  0x68, 0x6a, 0x5f, 0xbe, 0xcf, 0xa5, 0x10, 0x3d, 0x93, 0xe4, 0xd8, 0x3c,
  0x49, 0x9a, 0x8a, 0x3e, 0xca, 0x4d, 0x62, 0xbe, 0xb4, 0x0a, 0x0e, 0xbe,
  0xb9, 0x38, 0x37, 0xba, 0x5e, 0x7f, 0x2b, 0xbe, 0xdc, 0x6b, 0xbc, 0x3e,
  0xcd, 0x73, 0x4e, 0xbe, 0x2b, 0x03, 0x4e, 0xbd, 0x55, 0x82, 0x4b, 0xbe,
  0x86, 0xa0, 0x08, 0xbe, 0x17, 0x85, 0x77, 0x3e, 0x7d, 0x9f, 0xc8, 0x3c,
  0xa6, 0x06, 0xf9, 0xbc, 0x93, 0x09, 0x88, 0x3e, 0x10, 0xf4, 0x2f, 0x3d,
  0x4f, 0x27, 0x26, 0x3d, 0x13, 0x45, 0x29, 0xbd, 0xbc, 0xeb, 0x9b, 0xbe,
  0x55, 0xa3, 0x36, 0xbe, 0x24, 0x54, 0x21, 0x3d, 0x04, 0x22, 0x7c, 0xbe,
  0xd2, 0xee, 0x22, 0x3e, 0x74, 0xbf, 0x68, 0x3e, 0xca, 0xe5, 0x03, 0x3d,
  0x37, 0xfe, 0x17, 0xbe, 0x10, 0x8e, 0x16, 0xbe, 0x2d, 0xb9, 0xca, 0x3d,
  0x13, 0x4d, 0x8c, 0xbd, 0x1d, 0xa9, 0x49, 0x3e, 0x6b, 0xe1, 0xb3, 0x3e,
  0xfe, 0x43, 0x04, 0xbe, 0xfd, 0x0c, 0x84, 0x3d, 0xd1, 0x3b, 0x5b, 0x3e,
  0x1f, 0xd4, 0x77, 0xbd, 0xac, 0xda, 0x23, 0xbd, 0xd8, 0x0d, 0x9c, 0x3d,
  0x8f, 0xf4, 0xd2, 0xbe, 0x8a, 0x29, 0x6a, 0xbc, 0xb6, 0xa4, 0xe1, 0x3c,
  0x90, 0xc8, 0x00, 0xbe, 0x9b, 0xee, 0x8c, 0xbc, 0x4b, 0xfc, 0x99, 0xbd,
  0xaf, 0xaf, 0xc8, 0x3b, 0x60, 0xa0, 0x3f, 0xbd, 0x3a, 0x12, 0x91, 0xbd,
  0x32, 0x2a, 0xe8, 0x3e, 0x5d, 0xeb, 0x28, 0x3d, 0x26, 0x97, 0x99, 0x3d,
  0xa3, 0x07, 0xe9, 0x3c, 0x08, 0x1a, 0x21, 0xbe, 0x92, 0x65, 0x14, 0xbe,
  0x36, 0x4a, 0xb2, 0xbc, 0x73, 0xe5, 0x05, 0xbe, 0xc6, 0x22, 0x82, 0xbd,
  0x82, 0x15, 0x33, 0x3e, 0xef, 0x2c, 0x06, 0xbe, 0xfd, 0xc9, 0x08, 0xbe,
  0x0e, 0x89, 0xbe, 0x3d, 0x2e, 0xd6, 0x26, 0xbe, 0xa7, 0xe4, 0x82, 0x3d,
  0xea, 0xfc, 0x48, 0x3d, 0xed, 0xc6, 0x1d, 0x3f, 0x50, 0xff, 0x58, 0xbe,
  0x3e, 0xce, 0x02, 0x3d, 0x2f, 0x97, 0xf8, 0xbd, 0x1c, 0x07, 0x09, 0xbc,
  0xcb, 0x8f, 0xd7, 0xbd, 0x70, 0xdb, 0xd9, 0xbd, 0xab, 0xbe, 0xd3, 0xbd,
  0x1e, 0x12, 0xe6, 0x3d, 0xb9, 0x01, 0xc2, 0x3d, 0x71, 0x5a, 0x5a, 0xbc,
  0x6e, 0xa5, 0xc4, 0x3d, 0x47, 0x3f, 0x9a, 0x3e, 0x46, 0x18, 0x0f, 0xbe,
  0xc0, 0xcd, 0x0d, 0xbe, 0xb3, 0x6a, 0x7b, 0x3e, 0x2d, 0x2e, 0x44, 0x3e,
  0xee, 0x97, 0x30, 0x3d, 0x0b, 0x16, 0x09, 0xbd, 0x94, 0xf1, 0x47, 0xbe,
  0x15, 0xe4, 0x9e, 0x3d, 0xed, 0x61, 0x4b, 0xbe, 0xc4, 0xa6, 0x22, 0xbe,
  0x76, 0x36, 0x16, 0xba, 0xb9, 0x07, 0x13, 0x3d, 0xc9, 0x01, 0x12, 0x3e,
  0x64, 0x4b, 0x32, 0xbe, 0xb5, 0x4b, 0x96, 0x3d, 0x6a, 0x07, 0x5a, 0x3e,
  0x4b, 0x73, 0x25, 0xbe, 0x54, 0x9f, 0xf6, 0x3d, 0xef, 0x6b, 0xb0, 0x3e,
  0x05, 0xb6, 0xd6, 0x3e, 0x62, 0xbb, 0x95, 0xbc, 0xd4, 0xf8, 0xb2, 0xbd,
  0x37, 0xd5, 0x00, 0xbe, 0x88, 0xe8, 0xf7, 0xba, 0x13, 0x54, 0x86, 0x3d,
  0x76, 0xea, 0x81, 0xbd, 0xcb, 0x16, 0x52, 0xbc, 0xb8, 0xd8, 0x10, 0x3e,
  0xd1, 0x1b, 0xfd, 0x3d, 0x1e, 0x77, 0xb9, 0xbd, 0x51, 0x43, 0xfb, 0x3d,
  0x98, 0xeb, 0x26, 0x3e, 0xea, 0x80, 0x95, 0x3c, 0xda, 0xa1, 0x8d, 0xbd,
  0x1a, 0x4d, 0x21, 0x3e, 0x19, 0x0c, 0x9a, 0x3e, 0x50, 0x4e, 0xd6, 0x3d,
  0xa1, 0x44, 0x14, 0xbe, 0x4c, 0xe3, 0xc6, 0xbd, 0xfe, 0xc0, 0x38, 0x3d,
  0x93, 0x95, 0x21, 0x3d, 0x63, 0x53, 0xf1, 0xbd, 0xc0, 0xc9, 0x1e, 0x3d,
  0x9b, 0x64, 0x82, 0x3c, 0xfa, 0xc5, 0x6c, 0xbe, 0xb9, 0xfb, 0x2a, 0xbe,
  0x4e, 0x19, 0xb2, 0x3d, 0xb7, 0xe0, 0x40, 0x3e, 0x72, 0x3f, 0x49, 0x3e,
  0x2e, 0x8c, 0x13, 0xbd, 0x06, 0x68, 0x92, 0x3e, 0x3a, 0x37, 0xf3, 0x3e,
  0x3e, 0xae, 0x26, 0x3e, 0x67, 0x2c, 0x3a, 0xbe, 0x73, 0x73, 0xbe, 0x3b,
  0xc2, 0xf2, 0x23, 0xbd, 0x54, 0x8f, 0x68, 0x3e, 0xbc, 0x2b, 0x04, 0xbe,
  0x02, 0x4f, 0x27, 0xba, 0xff, 0xdc, 0xa4, 0x3d, 0xb3, 0x49, 0x3a, 0xbe,
  0xfe, 0x4d, 0x16, 0xbd, 0x7e, 0x41, 0x48, 0x3e, 0x02, 0xc1, 0xa5, 0x3e,
  0x28, 0xdd, 0x84, 0x3d, 0xfd, 0x24, 0xc1, 0x3d, 0x06, 0xb1, 0x4f, 0x3e,
  0x23, 0xca, 0x0e, 0xbe, 0x52, 0x8c, 0xac, 0x3e, 0x9b, 0xe3, 0x83, 0xbd,
  0x3d, 0x31, 0xe5, 0xbe, 0x41, 0x4e, 0x4d, 0x3d, 0x21, 0x4c, 0xdb, 0xbd,
  0x78, 0xb5, 0x85, 0xbc, 0xb5, 0x5e, 0x0c, 0x3b, 0x78, 0x91, 0x86, 0x3e,
  0xbe, 0x34, 0x30, 0x3e, 0x52, 0xf1, 0xe5, 0x3d, 0xe6, 0x80, 0x31, 0xbe,
  0x99, 0x51, 0xb9, 0x3d, 0x1b, 0x9c, 0x04, 0x3e, 0xf2, 0x08, 0xa2, 0x3e,
  0x0f, 0x1b, 0xf0, 0xbd, 0x05, 0xdb, 0x6e, 0x3c, 0xb7, 0xe0, 0xc5, 0x3d,
  0x55, 0xaa, 0x84, 0x3d, 0x2c, 0x64, 0xac, 0x3e, 0xcc, 0xcf, 0xda, 0xbe,
  0x0b, 0x73, 0xf0, 0xbd, 0x48, 0xec, 0x70, 0x3c, 0x70, 0x14, 0xcf, 0xbe,
  0xa5, 0xd9, 0x42, 0x3d, 0xc7, 0xf9, 0xc8, 0x3e, 0x10, 0xbc, 0xa4, 0xbc,
  0x3e, 0x97, 0x97, 0xbe, 0xe5, 0x1c, 0x09, 0xbc, 0xc7, 0x88, 0x4c, 0x3d,
  0x2f, 0x0d, 0x1f, 0xbd, 0x9a, 0x0f, 0x43, 0xbe, 0x75, 0xf7, 0x66, 0xbe,
  0xb6, 0x41, 0x1d, 0xbd, 0x88, 0x75, 0x87, 0x3d, 0x51, 0x92, 0x07, 0x3e,
  0xfb, 0x26, 0xba, 0x3d, 0x94, 0x1e, 0x01, 0x3e, 0xad, 0xd4, 0xff, 0xbe,
  0xaa, 0xe9, 0xe4, 0xbe, 0xe8, 0xa0, 0x24, 0xbe, 0x19, 0xfb, 0xf9, 0x3d,
  0x54, 0x39, 0xf3, 0x3b, 0xfd, 0xae, 0x44, 0xbe, 0x27, 0x98, 0x83, 0xbe,
  0xf1, 0xaf, 0x1f, 0x3e, 0x3a, 0x2c, 0xa9, 0xbc, 0x36, 0xf2, 0xed, 0xbd,
  0x34, 0x9a, 0xbb, 0xbd, 0x8f, 0xc2, 0x60, 0x3e, 0xe8, 0x2f, 0x96, 0xbc,
  0x2b, 0x9a, 0xc0, 0x3d, 0x12, 0xd1, 0x88, 0xbd, 0xad, 0x68, 0xe2, 0x3c,
  0x3d, 0x8a, 0x6c, 0xbe, 0x47, 0x3a, 0x65, 0xbe, 0xbc, 0xa4, 0x66, 0x3d,
  0xb0, 0x03, 0x67, 0x3e, 0x04, 0x7b, 0xdb, 0x3c, 0xcf, 0x0d, 0x41, 0xbe,
  0x1d, 0x31, 0x03, 0xbe, 0x98, 0x78, 0x96, 0x3e, 0x8b, 0xfc, 0x14, 0xbe,
  0xbb, 0x05, 0x3b, 0x3d, 0xdb, 0x34, 0x59, 0xbe, 0x1e, 0xc2, 0xa4, 0x3d,
  0x9d, 0x56, 0x23, 0x3d, 0x67, 0x18, 0xe9, 0xba, 0x67, 0x9f, 0xa4, 0xbd,
  0x78, 0x91, 0x0d, 0x3d, 0xfe, 0x16, 0x20, 0xbd, 0xf8, 0x21, 0xf1, 0xbd,
  0x0a, 0x8e, 0x5f, 0x3e, 0xec, 0xf2, 0x3d, 0x3e, 0xf3, 0xce, 0x97, 0x3c,
  0x49, 0x9f, 0x1c, 0xbe, 0x08, 0x1b, 0x99, 0xbd, 0xf8, 0x23, 0x28, 0x3e,
  0x17, 0x12, 0xa1, 0xbd, 0xc3, 0x6b, 0x5f, 0xbe, 0x00, 0x31, 0xb4, 0xbd,
  0x5c, 0x4f, 0x71, 0xbd, 0xfa, 0xd8, 0x56, 0x3c, 0xd1, 0xc4, 0x2e, 0x3d,
  0xdb, 0x0d, 0x49, 0xbe, 0x17, 0x17, 0xae, 0xbd, 0x21, 0x9b, 0xda, 0xbd,
  0x55, 0x7d, 0x20, 0xbe, 0x53, 0xe8, 0x77, 0x3e, 0x39, 0xca, 0x29, 0x3e,
  0xf5, 0x0e, 0x6c, 0x3d, 0x11, 0xa6, 0xe1, 0xbe, 0x83, 0xf0, 0x44, 0xbe,
  0x8f, 0xd1, 0x96, 0x3e, 0x1b, 0x3e, 0x94, 0xbd, 0x40, 0xbb, 0x0b, 0xbe,
  0xaa, 0xeb, 0x5d, 0xbd, 0xff, 0x7c, 0x21, 0xbe, 0x9a, 0x82, 0xb9, 0x3d,
  0xba, 0x4d, 0x0f, 0x3e, 0x5f, 0xd3, 0xcc, 0xbe, 0x45, 0xfe, 0x46, 0xbd,
  0x24, 0x7a, 0x06, 0xbe, 0x5b, 0x66, 0x8f, 0xbe, 0xce, 0x98, 0x9c, 0x3e,
  0xc3, 0x6d, 0xb5, 0x3e, 0x0a, 0x42, 0xb7, 0x3d, 0xb9, 0xbd, 0x2a, 0xbe,
  0xa9, 0xae, 0x91, 0xbe, 0x8c, 0xdd, 0x53, 0xbd, 0x9c, 0x7d, 0x12, 0xbd,
  0xee, 0x18, 0x5f, 0xbd, 0x86, 0x2d, 0xbb, 0x3e, 0xe8, 0x39, 0x0b, 0x3d,
  0x01, 0x0b, 0xb8, 0x3d, 0xf8, 0x8e, 0xdc, 0x3e, 0x08, 0xb1, 0xea, 0xbd,
  0x35, 0x9f, 0x98, 0x3c, 0x18, 0xda, 0xe7, 0xb9, 0xf4, 0x57, 0x47, 0xbe,
  0x43, 0x23, 0xdc, 0xbd, 0x39, 0xb3, 0xf6, 0xbd, 0x2b, 0x49, 0xcc, 0x3b,
  0xb5, 0x1b, 0x88, 0xbe, 0xb0, 0x56, 0x44, 0x3e, 0x34, 0x7d, 0x31, 0xbd,
  0xe3, 0x40, 0xe1, 0x3d, 0x77, 0x2a, 0xd8, 0x3d, 0xb6, 0xc7, 0x2b, 0x3f,
  0x04, 0xae, 0x3c, 0xbe, 0x5c, 0x95, 0x07, 0xbd, 0x6d, 0x0c, 0x70, 0xbe,
  0xe2, 0xeb, 0x53, 0xbe, 0xb8, 0x7a, 0x57, 0xbd, 0x61, 0xe2, 0xd8, 0xbe,
  0x66, 0x15, 0x96, 0xbe, 0x74, 0xb8, 0x6c, 0x3d, 0xb4, 0xa6, 0x06, 0x3e,
  0x1c, 0x8b, 0x72, 0x3b, 0x63, 0x4f, 0x8e, 0xbe, 0x92, 0x19, 0x48, 0xbe,
  0x70, 0x49, 0x89, 0xbe, 0x92, 0xee, 0x41, 0xbd, 0xae, 0xe4, 0x09, 0x3e,
  0xbf, 0xa6, 0x99, 0x3f, 0x23, 0xb0, 0xca, 0x3d, 0xfa, 0x3c, 0xb5, 0xbe,
  0x0a, 0xb4, 0x0e, 0xbe, 0x9a, 0x0e, 0x88, 0xbe, 0x11, 0xd3, 0x87, 0x3d,
  0x7c, 0x6b, 0xaf, 0xbe, 0xe0, 0xdb, 0xd2, 0xbe, 0xed, 0xc7, 0x05, 0x3c,
  0x11, 0x20, 0x33, 0xbe, 0xb8, 0x8c, 0x92, 0x3b, 0x41, 0xe9, 0xc5, 0x3d,
  0x76, 0x0b, 0x88, 0xbd, 0xc8, 0x79, 0x6e, 0x3d, 0xaa, 0xe6, 0x53, 0xbe,
  0x59, 0xa0, 0xa2, 0x3d, 0x24, 0x4c, 0xa3, 0x3f, 0x7b, 0x6b, 0xf0, 0x3d,
  0xce, 0x41, 0x8d, 0xbe, 0x56, 0x14, 0x82, 0xbe, 0xa4, 0x08, 0xa1, 0x3d,
  0xd4, 0x5e, 0x77, 0xbe, 0x29, 0xd6, 0x57, 0xbe, 0x03, 0xec, 0xc2, 0xbc,
  0x37, 0xdc, 0x6d, 0xbe, 0x74, 0xf3, 0x36, 0xbd, 0xed, 0x1f, 0x48, 0xbe,
  0x27, 0x41, 0x0e, 0x3d, 0x84, 0x46, 0x02, 0x3e, 0x47, 0xb1, 0x79, 0xbe,
  0x2c, 0xff, 0xdc, 0x3c, 0x24, 0xba, 0x80, 0xbb, 0x3f, 0x0b, 0x9f, 0x3f,
  0x0d, 0xb1, 0x61, 0xbe, 0x2f, 0x64, 0x4f, 0xbc, 0x21, 0x31, 0x85, 0xbd,
  0xe1, 0x4d, 0x14, 0xbe, 0x79, 0x9b, 0x69, 0xbe, 0x41, 0x7c, 0x80, 0xbe,
  0x26, 0xd8, 0x63, 0xbe, 0x44, 0x51, 0x87, 0x3c, 0x10, 0x07, 0x26, 0x3e,
  0xb3, 0x64, 0x89, 0xbe, 0x95, 0xee, 0x39, 0xbe, 0x02, 0xd9, 0xab, 0x3d,
  0xe6, 0x5f, 0xb7, 0x3c, 0xec, 0x4f, 0x24, 0x3e, 0x7b, 0xe4, 0x33, 0x3d,
  0x52, 0xe5, 0x97, 0x3f, 0xee, 0x12, 0x0c, 0xbe, 0xbe, 0xcc, 0x9b, 0xbe,
  0x77, 0x0e, 0x31, 0xbe, 0xff, 0x7f, 0xf1, 0xbc, 0x27, 0x9b, 0x95, 0xbd,
  0xe5, 0xe3, 0x5b, 0xbd, 0x68, 0xb4, 0xb0, 0xbd, 0xe1, 0xe0, 0xac, 0x3d,
  0xf0, 0xea, 0xad, 0x3d, 0x65, 0x60, 0x83, 0xbe, 0x96, 0xdb, 0x80, 0xbc,
  0x5c, 0xd2, 0xcb, 0x3d, 0x8c, 0x9e, 0xc4, 0x3d, 0x6a, 0xb8, 0x6a, 0xbe,
  0x76, 0xca, 0x86, 0xbe, 0x8c, 0x4b, 0xa7, 0x3f, 0xa5, 0x2d, 0x69, 0x3c,
  0x75, 0xe7, 0x35, 0xbe, 0xb6, 0xfb, 0x8c, 0x3d, 0x1d, 0xfc, 0x95, 0xbd,
  0x47, 0xfb, 0x9a, 0xbe, 0x5e, 0x7c, 0x68, 0xbe, 0xfd, 0x49, 0xbb, 0xbe,
  0xb2, 0xf6, 0x0f, 0x3d, 0xeb, 0x78, 0xd2, 0xbd, 0xc5, 0xc0, 0x96, 0xbe,
  0x9c, 0xe1, 0xe0, 0x3c, 0xc7, 0xe9, 0x2b, 0xbc, 0xa4, 0xe7, 0x45, 0xbc,
  0x6d, 0x9c, 0xd2, 0xbd, 0xc4, 0xa0, 0x23, 0x3d, 0x5c, 0xec, 0x88, 0x3e,
  0xe2, 0xf3, 0x61, 0x3d, 0xf2, 0xe1, 0xd3, 0xbe, 0x49, 0xe1, 0x03, 0x3e,
  0xf1, 0xfc, 0x84, 0x3a, 0xa9, 0xa6, 0xbf, 0xbd, 0xac, 0x62, 0xb7, 0xbe,
  0x4f, 0x5d, 0x4a, 0xbd, 0xc2, 0x20, 0x54, 0x3c, 0x82, 0xd5, 0xa1, 0xbd,
  0x89, 0x2b, 0x55, 0x3c, 0x7f, 0x1d, 0x23, 0xbd, 0x6e, 0xa8, 0x3e, 0x3e,
  0xfa, 0x26, 0xa9, 0x3c, 0x09, 0x1b, 0x23, 0xbd, 0x04, 0x5a, 0x94, 0x3e,
  0xf5, 0x67, 0xa2, 0x3e, 0xec, 0xc7, 0xc4, 0xbd, 0xd0, 0x0c, 0x8b, 0xbe,
  0x27, 0x08, 0x01, 0xbe, 0xee, 0x0f, 0xf1, 0xbb, 0x0e, 0xd7, 0x34, 0xbe,
  0x99, 0xbd, 0xaa, 0x3c, 0x31, 0x04, 0x7b, 0x3e, 0x4d, 0xb6, 0xed, 0xbd,
  0xbc, 0xdf, 0x03, 0xbe, 0x37, 0x49, 0x6e, 0x3c, 0x55, 0x7b, 0x4b, 0xbd,
  0xa5, 0x2f, 0xdb, 0xbe, 0xae, 0x70, 0x19, 0x3e, 0x07, 0xae, 0x7b, 0xbe,
  0x2f, 0x18, 0x81, 0x3c, 0x41, 0x15, 0x20, 0x3f, 0x7d, 0x33, 0xa0, 0xbd,
  0x5e, 0x83, 0xa0, 0xbe, 0xc5, 0xba, 0x85, 0xbe, 0x83, 0x90, 0x5b, 0x3d,
  0x1a, 0xa1, 0x4d, 0xbe, 0x0b, 0x8b, 0x21, 0x3e, 0x67, 0xcc, 0x5d, 0x3d,
  0x00, 0x74, 0x2d, 0xbd, 0x42, 0xe3, 0x13, 0xbe, 0x37, 0x46, 0x54, 0xbc,
  0x79, 0x4c, 0xd7, 0x3d, 0x7a, 0x71, 0xee, 0xbd, 0x0b, 0x9d, 0xd6, 0xbb,
  0x55, 0x5c, 0xbd, 0xbd, 0xa8, 0x31, 0x90, 0x3e, 0x5e, 0x91, 0xf8, 0x3e,
  0x33, 0x66, 0x8a, 0x3d, 0x48, 0xee, 0xb0, 0xbd, 0x8f, 0xc1, 0x5a, 0xbd,
  0x76, 0x81, 0x33, 0x3e, 0x95, 0x9f, 0x3a, 0x3d, 0x1a, 0x5b, 0x8a, 0xbc,
  0x87, 0x22, 0x62, 0x3c, 0x4f, 0x02, 0x13, 0x3e, 0x64, 0xfa, 0x11, 0xbe,
  0xf8, 0xc1, 0x77, 0x3d, 0x98, 0xc0, 0x91, 0x3d, 0xc6, 0xb4, 0xc2, 0x3e,
  0x59, 0xf3, 0x02, 0xbe, 0x5e, 0x84, 0x79, 0xbb, 0x02, 0xea, 0xd2, 0x3e,
  0xce, 0x41, 0x0f, 0x3f, 0xa7, 0xa7, 0xc3, 0x3d, 0x17, 0x0f, 0x07, 0xbd,
  0x86, 0xb8, 0xb4, 0x3b, 0x1c, 0x6b, 0x0a, 0x3e, 0x2a, 0x75, 0xa9, 0x3c,
  0x05, 0x9b, 0x2f, 0xbd, 0xad, 0x2d, 0xc7, 0xbd, 0x2a, 0xae, 0xbe, 0x3e,
  0x5f, 0x21, 0x45, 0xbd, 0xc0, 0x82, 0x8c, 0xbd, 0xc1, 0x1b, 0x6a, 0xbb,
  0x8e, 0x74, 0xd8, 0x3e, 0xa2, 0x65, 0xa3, 0xbc, 0xd9, 0x0f, 0xc7, 0x3d,
  0x64, 0x21, 0x0f, 0x3f, 0x13, 0x73, 0x12, 0x3f, 0x06, 0x8b, 0xf8, 0x3d,
  0x71, 0x03, 0xd0, 0xbc, 0xc5, 0xbc, 0x30, 0xbc, 0x4b, 0x52, 0x6a, 0x3d,
  0x65, 0x01, 0x3b, 0xbd, 0xd3, 0x8b, 0x00, 0xbd, 0x30, 0x6a, 0xc0, 0xbc,
  0xfb, 0x31, 0x76, 0x3e, 0x10, 0x43, 0x27, 0x3d, 0xc3, 0x7c, 0x3f, 0xbd,
  0x3f, 0x98, 0x1c, 0xbd, 0x68, 0xf1, 0x9e, 0x3e, 0xd7, 0x7d, 0x15, 0x3d,
  0x13, 0xd2, 0x09, 0x3e, 0x09, 0xb0, 0xb5, 0x3e, 0xf8, 0xa3, 0xef, 0x3e,
  0x53, 0x0c, 0x16, 0xbe, 0x95, 0xfd, 0xba, 0xbd, 0xbb, 0xda, 0x76, 0xbe,
  0x46, 0x45, 0x99, 0x3d, 0xb9, 0xa9, 0x9a, 0xbe, 0xb8, 0x9c, 0x59, 0x3e,
  0xeb, 0xd0, 0x81, 0x3d, 0x01, 0x17, 0x28, 0x3e, 0xd8, 0xc9, 0x1e, 0xbe,
  0x0d, 0x99, 0xde, 0xbd, 0x65, 0x39, 0x46, 0xbd, 0xfe, 0xc5, 0x16, 0x3e,
  0x29, 0xca, 0xb9, 0x3c, 0x2c, 0x35, 0x6a, 0x3d, 0x6f, 0x9a, 0x01, 0x3e,
  0xe6, 0xac, 0x55, 0xbd, 0x13, 0x76, 0xc3, 0xbd, 0xf4, 0x5c, 0xc7, 0xbd,
  0x99, 0x99, 0xa7, 0xbe, 0x58, 0x07, 0x1a, 0x3d, 0x20, 0x25, 0xee, 0xbc,
  0xe0, 0x58, 0x9e, 0xbd, 0x87, 0x5e, 0xef, 0x3d, 0xb0, 0x19, 0x59, 0xbe,
  0x82, 0xa2, 0x9c, 0x3d, 0x3b, 0xd6, 0x35, 0xbe, 0x7c, 0x3c, 0xed, 0xbd,
  0x27, 0x74, 0x21, 0xbe, 0x6a, 0xab, 0x02, 0xbe, 0x67, 0xbb, 0x46, 0xbe,
  0xa7, 0xda, 0x25, 0x3e, 0x7b, 0xfb, 0x85, 0x3f, 0x64, 0x9f, 0x4a, 0xbe,
  0x97, 0x5d, 0xeb, 0xbc, 0xa8, 0x79, 0x10, 0xbe, 0xf7, 0xf7, 0x3b, 0xbe,
  0xd2, 0x61, 0xec, 0x3c, 0x00, 0x7c, 0x45, 0xbe, 0xbb, 0x8c, 0x1a, 0xbe,
  0xa8, 0x77, 0xf5, 0x3c, 0xf7, 0xf8, 0x37, 0xbe, 0x56, 0xd4, 0x69, 0xbe,
  0xe8, 0xe5, 0x81, 0x3d, 0x3a, 0x42, 0x0a, 0x3e, 0xf8, 0x10, 0x90, 0xbe,
  0x7d, 0x14, 0x50, 0x3e, 0xe5, 0xf3, 0x33, 0x3d, 0xc8, 0x9f, 0xae, 0x3f,
  0x6f, 0xe8, 0x52, 0xbe, 0xb5, 0xe9, 0x91, 0xbe, 0xeb, 0xb4, 0xb1, 0x3d,
  0xf2, 0xd7, 0x59, 0xbe, 0xd1, 0x16, 0xa3, 0x3d, 0x7e, 0x5d, 0x53, 0xbe,
  0x2a, 0x26, 0x90, 0xbd, 0xfd, 0xf2, 0xc5, 0x3d, 0xa3, 0x38, 0x92, 0x3d,
  0x5f, 0xc1, 0x7b, 0xbe, 0xf8, 0xde, 0x77, 0xbe, 0xb7, 0x95, 0x99, 0xbd,
  0x49, 0xf0, 0xf8, 0xbd, 0x28, 0x8e, 0x2a, 0xbe, 0x8f, 0xcf, 0x0d, 0x3e,
  0x88, 0xe2, 0x6e, 0x3f, 0x31, 0x33, 0xf8, 0xbd, 0x22, 0xc2, 0x15, 0x3e,
  0x1f, 0x07, 0x93, 0xbd, 0x93, 0x02, 0x85, 0x3d, 0x67, 0x93, 0x27, 0xbe,
  0xee, 0xac, 0x8a, 0xbe, 0x4f, 0x17, 0xa4, 0xbe, 0x85, 0x21, 0x8a, 0xbd,
  0x86, 0x35, 0x80, 0x3d, 0xfd, 0xe2, 0x1b, 0xbe, 0x48, 0xf1, 0x07, 0xbe,
  0x17, 0xff, 0xd6, 0x3d, 0x54, 0x13, 0xab, 0xbb, 0xb9, 0xcc, 0xa1, 0x3c,
  0x5c, 0xe0, 0x93, 0x3d, 0xe0, 0xb7, 0x85, 0x3f, 0x77, 0x9f, 0x34, 0xbe,
  0xa3, 0x78, 0x21, 0xbe, 0xac, 0x14, 0xe4, 0x3d, 0xf8, 0x90, 0xfa, 0xbd,
  0x02, 0x56, 0x2f, 0xbe, 0xe9, 0x0f, 0xb8, 0x3c, 0x4e, 0x06, 0x74, 0xbe,
  0x77, 0x97, 0x3b, 0xbd, 0xe4, 0x27, 0xa5, 0xbd, 0xb3, 0xbb, 0x03, 0xbe,
  0x37, 0xbb, 0x5d, 0x3d, 0x8d, 0xb9, 0x34, 0xbd, 0xba, 0xde, 0x1c, 0xbe,
  0x31, 0x1d, 0x1a, 0xbe, 0x64, 0x1f, 0xcf, 0x3c, 0x14, 0x4b, 0x99, 0x3f,
  0x18, 0x68, 0xcd, 0x3d, 0x6a, 0x4a, 0x46, 0xbd, 0x74, 0x8e, 0x2f, 0xbe,
  0x5d, 0x6f, 0x1a, 0xbe, 0x58, 0x53, 0x1a, 0xbe, 0x90, 0x7a, 0x1d, 0xbe,
  0x97, 0x71, 0x04, 0xbc, 0x67, 0xde, 0x14, 0xbe, 0x3a, 0x1d, 0x2e, 0xbe,
  0x57, 0x74, 0x9c, 0xbc, 0x28, 0x14, 0xb6, 0x3c, 0x55, 0xf0, 0x55, 0xbe,
  0x33, 0x7f, 0x42, 0xbd, 0xf4, 0xcc, 0xd8, 0x3c, 0x61, 0x76, 0x22, 0xbe,
  0xf8, 0x70, 0x99, 0x3f, 0xd9, 0x7b, 0x73, 0xbe, 0xeb, 0xe4, 0xb7, 0xbd,
  0x39, 0x87, 0xf6, 0x3d, 0x55, 0x6e, 0xdc, 0xbd, 0x59, 0xb2, 0x21, 0xbe,
  0xed, 0x64, 0x0c, 0xbe, 0xb7, 0x50, 0x80, 0x3d, 0x87, 0x81, 0xdf, 0xbd,
  0x85, 0x76, 0xab, 0xbd, 0x50, 0xdc, 0x53, 0xbe, 0x95, 0x1a, 0x3b, 0xbe,
  0xb4, 0xad, 0xb4, 0x3d, 0xec, 0x0c, 0xc6, 0xbd, 0x9e, 0x0a, 0xc5, 0xbd,
  0xd1, 0x99, 0xbf, 0x3d, 0x06, 0x5b, 0x80, 0x3e, 0xcb, 0x15, 0x0e, 0x3d,
  0xdc, 0xa9, 0x99, 0xbe, 0x26, 0xc9, 0x11, 0xbd, 0x7c, 0xf8, 0x20, 0xbe,
  0xe4, 0x3b, 0xf0, 0xbc, 0xcd, 0xea, 0xf1, 0xbd, 0x60, 0x68, 0x39, 0xbe,
  0x06, 0x16, 0x83, 0xbd, 0x5d, 0x8e, 0x5c, 0xbe, 0x11, 0xc9, 0x92, 0xbe,
  0x84, 0x95, 0xcf, 0x3d, 0x82, 0x8f, 0x5d, 0x3e, 0xa3, 0x35, 0x19, 0x3e,
  0xd0, 0x23, 0x71, 0xbd, 0x22, 0x48, 0x88, 0x3e, 0x0b, 0x2b, 0x17, 0x3f,
  0xa1, 0xc9, 0xc5, 0x3d, 0x25, 0xfa, 0x42, 0xbe, 0x0f, 0xcf, 0xb7, 0xbb,
  0x52, 0x4a, 0x13, 0x3c, 0x71, 0x6d, 0xf5, 0x3d, 0x8c, 0xf5, 0x9b, 0xbc,
  0x69, 0x23, 0x18, 0x3e, 0x07, 0x05, 0x2b, 0x3d, 0x6e, 0x8d, 0x28, 0xbe,
  0x5b, 0xed, 0x1c, 0xbe, 0xba, 0x6b, 0x65, 0x3d, 0xda, 0x6e, 0xb3, 0xbd,
  0x0e, 0xb0, 0x7c, 0x3e, 0x38, 0x93, 0x8d, 0xbd, 0x60, 0x6a, 0xeb, 0x3d,
  0x3c, 0xa1, 0x23, 0x3f, 0x1b, 0x66, 0x97, 0x3e, 0x71, 0xa9, 0xc3, 0xbe,
  0xfc, 0x45, 0xa8, 0x3d, 0x60, 0x4b, 0x8a, 0x3c, 0x7f, 0xb5, 0x90, 0xbb,
  0xb2, 0xa4, 0xf3, 0xbd, 0xab, 0x12, 0x94, 0x3d, 0xf3, 0x5f, 0x85, 0x3e,
  0x65, 0xed, 0x03, 0xbe, 0xf5, 0x8a, 0x4a, 0xbe, 0x74, 0x72, 0x34, 0x3e,
  0xab, 0x82, 0xaf, 0x3d, 0xb0, 0x09, 0x4e, 0x3e, 0x63, 0x94, 0xda, 0x3d,
  0xe6, 0x3a, 0x77, 0x3e, 0x5a, 0x64, 0x36, 0x3f, 0x62, 0xb3, 0x3a, 0x3e,
  0x78, 0x65, 0x35, 0xbe, 0xba, 0x06, 0x56, 0xbd, 0xe1, 0xdf, 0xae, 0x3d,
  0x1d, 0xc3, 0xd1, 0xbe, 0xe5, 0xc3, 0xab, 0x3c, 0x4d, 0xb6, 0x0a, 0x3e,
  0xab, 0xe9, 0x8a, 0x3d, 0x7e, 0x01, 0xdb, 0xbd, 0xd8, 0x7e, 0x31, 0xbc,
  0x8f, 0xcb, 0x0b, 0x3d, 0xd9, 0xcc, 0x71, 0xbd, 0x50, 0x71, 0x81, 0xbd,
  0xf6, 0xdf, 0xbb, 0x3d, 0xf9, 0x36, 0x4e, 0xbd, 0x3f, 0x2c, 0x71, 0x3f,
  0x5f, 0xbd, 0x30, 0x3c, 0x75, 0x43, 0xb7, 0xbd, 0xa7, 0xbe, 0xbe, 0xbc,
  0x5d, 0xf4, 0x63, 0xbe, 0x79, 0x28, 0xc4, 0xbe, 0x12, 0x4a, 0x29, 0x3e,
  0xa4, 0x84, 0x4d, 0x3d, 0xb6, 0xe3, 0x74, 0xbc, 0x6c, 0x29, 0x35, 0x3d,
  0xb7, 0x5a, 0x89, 0xbd, 0x5b, 0xcc, 0x3d, 0xbc, 0x42, 0x8b, 0xd5, 0x3d,
  0x32, 0x61, 0x12, 0x3c, 0x03, 0x59, 0x1b, 0xbc, 0x1f, 0xef, 0x9f, 0xbd,
  0x52, 0x3e, 0x31, 0x3f, 0xc0, 0xca, 0x58, 0xbc, 0x95, 0x46, 0x75, 0xbc,
  0x8d, 0x9a, 0x4a, 0x3e, 0x0e, 0x07, 0x0a, 0xbe, 0xb3, 0xb7, 0xa0, 0xbe,
  0xf1, 0x2c, 0x27, 0xbd, 0x77, 0xab, 0x3a, 0xbe, 0x29, 0x6b, 0x2b, 0x3d,
  0x04, 0x18, 0xe7, 0x3b, 0x61, 0xbc, 0x23, 0x3c, 0x12, 0x80, 0x04, 0xbd,
  0x93, 0x33, 0x37, 0xbe, 0x24, 0x6a, 0x36, 0xbe, 0xfb, 0xf3, 0x3b, 0x3e,
  0xc2, 0x0b, 0xce, 0xbd, 0x74, 0xa3, 0xa0, 0x3f, 0x8b, 0x0e, 0x0c, 0xbe,
  0x70, 0x10, 0xef, 0x3c, 0xbd, 0xaf, 0xb9, 0x3c, 0xba, 0xbd, 0x4f, 0xbe,
  0x86, 0xd2, 0x38, 0xbe, 0x98, 0x28, 0xf2, 0xbd, 0xbc, 0xb5, 0xad, 0xbd,
  0x5e, 0x61, 0x99, 0x3d, 0x5c, 0xb6, 0x2e, 0xbe, 0x97, 0x28, 0x22, 0xbc,
  0x1f, 0x17, 0x9a, 0xbd, 0xa6, 0x9f, 0xaf, 0xbd, 0x32, 0x2f, 0x01, 0xbe,
  0x19, 0x83, 0x76, 0xbe, 0x6b, 0xed, 0xe0, 0x3d, 0xc1, 0xc3, 0xb5, 0x3d,
  0x3c, 0xe3, 0x58, 0xbe, 0xb7, 0x4b, 0xc4, 0xbd, 0x49, 0x27, 0x88, 0xbe,
  0xa4, 0xec, 0xd2, 0xbd, 0x36, 0xf9, 0xfe, 0xbd, 0x92, 0xe9, 0x1e, 0xbe,
  0xfa, 0x87, 0x90, 0xbe, 0x6d, 0x5a, 0x93, 0xbe, 0x09, 0x24, 0xf0, 0xbd,
  0x58, 0x97, 0xac, 0xbd, 0x0f, 0x2b, 0x96, 0xbe, 0x60, 0xe8, 0xb5, 0xbd,
  0xd7, 0x8b, 0xca, 0xbd, 0xf1, 0x4f, 0x65, 0x39, 0x84, 0xc6, 0x0c, 0xbe,
  0xab, 0x68, 0x88, 0x3f, 0xd3, 0x34, 0xff, 0xbd, 0xf4, 0x37, 0x0d, 0xbe,
  0x0a, 0x9b, 0x07, 0xbe, 0x51, 0x9a, 0xfa, 0xbd, 0x16, 0x1b, 0x5b, 0xbe,
  0x34, 0x33, 0xde, 0xbb, 0x97, 0xb5, 0xfd, 0xbd, 0x49, 0x5b, 0x04, 0xbe,
  0xd8, 0x85, 0x2a, 0xbc, 0x05, 0x07, 0x10, 0x3d, 0x7a, 0xd6, 0x94, 0xbe,
  0x51, 0xb7, 0xbd, 0xbd, 0x02, 0x9f, 0x12, 0x3e, 0xf2, 0x80, 0xc9, 0xbc,
  0xc8, 0x7a, 0x10, 0xbe, 0xdf, 0xb9, 0x4d, 0x3f, 0xa2, 0x5e, 0x4e, 0xbe,
  0xcd, 0x4d, 0x03, 0xbd, 0x86, 0x46, 0x2f, 0x3e, 0xfe, 0xa1, 0x1f, 0x3d,
  0x78, 0xe6, 0x5f, 0xbe, 0x4c, 0xd7, 0x99, 0xbe, 0xc8, 0x2c, 0x67, 0xbe,
  0x4c, 0x3f, 0x53, 0x3c, 0x82, 0x5f, 0xb9, 0xbd, 0x2c, 0xff, 0x5c, 0xbe,
  0x78, 0x96, 0xf4, 0xbd, 0x5b, 0xfa, 0x9b, 0xbb, 0x8d, 0x7a, 0xe0, 0xbd,
  0x47, 0x15, 0x94, 0xbe, 0x01, 0xc6, 0x7d, 0xbe, 0xb7, 0x13, 0x3a, 0x3f,
  0xec, 0x65, 0xed, 0x3d, 0x8b, 0x3c, 0x02, 0xbd, 0x8b, 0x9f, 0x19, 0xbe,
  0xc6, 0x09, 0x3e, 0xbe, 0x55, 0x63, 0x28, 0xbc, 0x5f, 0x09, 0x84, 0xbd,
  0x40, 0xa2, 0x95, 0xbd, 0x6c, 0xfe, 0xf6, 0xbc, 0xf7, 0x88, 0x06, 0xbe,
  0xf0, 0x6a, 0x05, 0x3d, 0x9a, 0x96, 0x58, 0xbe, 0xaf, 0x56, 0x6b, 0xbe,
  0x52, 0xaf, 0x99, 0xbc, 0xd1, 0x21, 0x3a, 0xbe, 0x27, 0x7c, 0xb2, 0x3d,
  0x71, 0xcc, 0x30, 0x3f, 0x35, 0x4f, 0x01, 0x3d, 0x9a, 0xe9, 0xfe, 0xbd,
  0x0f, 0x66, 0x38, 0xbd, 0x39, 0x04, 0xa8, 0xbd, 0x58, 0x85, 0x85, 0xbe,
  0xa0, 0xb3, 0x97, 0xbe, 0x26, 0xcc, 0x97, 0xbd, 0x56, 0x18, 0x57, 0xbd,
  0xdb, 0x96, 0x52, 0xbd, 0xad, 0xed, 0x02, 0xbe, 0x7d, 0x94, 0xab, 0x3d,
  0x60, 0x65, 0xa5, 0xbd, 0x3d, 0x0f, 0x2f, 0xbe, 0x63, 0xa1, 0x24, 0xbe,
  0xa5, 0x27, 0x2e, 0x3b, 0x85, 0xef, 0x77, 0x3f, 0x46, 0x10, 0x16, 0x3e,
  0xa3, 0xed, 0x08, 0xbd, 0xa5, 0x33, 0x37, 0xbe, 0x5f, 0x8b, 0xc8, 0xbc,
  0x28, 0x2c, 0x82, 0xbe, 0xae, 0x54, 0x7c, 0xbe, 0x70, 0x8a, 0xe5, 0xbd,
  0x7d, 0xc7, 0x28, 0xbe, 0x4e, 0x25, 0x0f, 0x3e, 0x1a, 0xe3, 0x7a, 0xbe,
  0x53, 0x79, 0xc8, 0x3d, 0x74, 0x63, 0x8f, 0x3c, 0x3b, 0x50, 0x32, 0xbd,
  0xf5, 0x2a, 0xcc, 0x3d, 0xed, 0xd7, 0x2f, 0x3e, 0x6d, 0x9d, 0x37, 0x3f,
  0x17, 0x4c, 0x53, 0xbe, 0x87, 0xdc, 0x94, 0x3d, 0xe7, 0x2b, 0x1a, 0x3e,
  0x83, 0xd1, 0x77, 0xbe, 0x50, 0x24, 0x06, 0xbe, 0x8b, 0x29, 0x6a, 0xbe,
  0x9f, 0xf2, 0x30, 0xbd, 0x21, 0xd4, 0xb0, 0x3c, 0x06, 0x17, 0xd9, 0xbd,
  0x8d, 0x96, 0x67, 0xbe, 0x45, 0xd8, 0x5e, 0xbd, 0x11, 0xb4, 0x4a, 0x3d,
  0xcf, 0x57, 0x92, 0xbe, 0x16, 0xef, 0xc9, 0xbd, 0xf7, 0xe7, 0x20, 0x3d,
  0xde, 0x32, 0x20, 0x3f, 0xc4, 0xdf, 0x90, 0xbe, 0x4f, 0xbd, 0xfe, 0xbd,
  0x59, 0xcf, 0xcb, 0xbd, 0x7f, 0x61, 0x1d, 0xbe, 0x71, 0xd7, 0x8e, 0xbe,
  0x7b, 0x8f, 0x83, 0xbe, 0xb4, 0xa8, 0xe3, 0xbd, 0x91, 0x1e, 0xe0, 0xbc,
  0xd3, 0x7e, 0x57, 0xbe, 0xb5, 0x27, 0x45, 0xbd, 0x6f, 0xb7, 0x34, 0xbe,
  0xa5, 0xa2, 0xb2, 0xbc, 0xb5, 0x0d, 0x0e, 0x3e, 0x3a, 0x2b, 0x9a, 0xbd,
  0x57, 0xdb, 0x93, 0x3e, 0xe1, 0x15, 0x14, 0xbe, 0x9c, 0xba, 0x4a, 0xbd,
  0xcd, 0xa4, 0x9e, 0xbb, 0x0f, 0x42, 0x20, 0xbe, 0x66, 0x4f, 0x48, 0xbe,
  0x07, 0x4b, 0x15, 0x3e, 0xd4, 0xbc, 0xf2, 0xbd, 0x45, 0x2d, 0x00, 0xbe,
  0xc7, 0xca, 0x16, 0x3e, 0xa1, 0x4d, 0xfb, 0xbd, 0x65, 0xd0, 0xc4, 0x3b,
  0x75, 0x9d, 0x9a, 0xbe, 0x0c, 0x49, 0x7e, 0xbe, 0xb8, 0x5c, 0x2b, 0x3c,
  0x15, 0x12, 0x75, 0xbe, 0x4a, 0xb7, 0x27, 0x3e, 0x19, 0x52, 0x38, 0xbe,
  0x98, 0x07, 0x87, 0x3b, 0x3f, 0x44, 0x7f, 0xbe, 0x2f, 0xe2, 0x94, 0x3c,
  0x6f, 0xf9, 0x40, 0x3e, 0x36, 0x3b, 0xf2, 0x3d, 0x67, 0x91, 0x50, 0x3d,
  0x80, 0x2e, 0xfd, 0x3c, 0x11, 0xa5, 0xb9, 0x3d, 0xd1, 0x19, 0x19, 0xbd,
  0xca, 0xfa, 0x67, 0xbe, 0x6f, 0xbf, 0x6e, 0xbe, 0xea, 0x08, 0xf1, 0xbd,
  0x8b, 0x22, 0x47, 0xbe, 0x08, 0x00, 0x94, 0x3a, 0xa8, 0xa3, 0x26, 0xbe,
  0x0f, 0x11, 0x95, 0xbd, 0x02, 0xc9, 0x0d, 0x3e, 0xcb, 0x6b, 0x95, 0xbc,
  0x58, 0xe8, 0x35, 0x3e, 0xba, 0x9a, 0x5b, 0xbd, 0x54, 0x7d, 0x1c, 0xbe,
  0x73, 0x86, 0x4c, 0xbe, 0xb7, 0xe6, 0x73, 0xbe, 0xcb, 0x19, 0x77, 0xbe,
  0x0d, 0x11, 0x33, 0xbd, 0xd7, 0xf8, 0x4d, 0xbd, 0xb0, 0x4d, 0x8d, 0xbd,
  0x3e, 0xa8, 0x48, 0xbe, 0x97, 0x84, 0x1f, 0xbe, 0x87, 0xc1, 0x14, 0xbe,
  0xc2, 0x91, 0x1a, 0xbe, 0x8a, 0xb1, 0x19, 0x3e, 0x60, 0xde, 0xcf, 0xbd,
  0x65, 0xe8, 0xac, 0xbc, 0xac, 0x7c, 0x76, 0xbd, 0xdb, 0xf9, 0x13, 0xbc,
  0xa9, 0xc1, 0x01, 0xbe, 0x68, 0x5b, 0xdf, 0xbe, 0xea, 0x20, 0x97, 0xbe,
  0x51, 0x51, 0x8c, 0x3d, 0x5b, 0x07, 0x81, 0xbd, 0x36, 0x40, 0x3e, 0xbd,
  0x28, 0xd9, 0x96, 0xbe, 0xc2, 0x49, 0x96, 0xbd, 0xdd, 0xb2, 0x0b, 0xbe,
  0x34, 0x82, 0x1c, 0x3e, 0xec, 0xe1, 0x6c, 0xbe, 0x98, 0xe4, 0x12, 0x3e,
  0x9a, 0x1d, 0x56, 0xbe, 0x36, 0xab, 0x98, 0xbe, 0x5a, 0x9b, 0xd9, 0xbd,
  0x60, 0xe1, 0xd8, 0x3c, 0x13, 0x6a, 0x7d, 0xbe, 0x83, 0x7a, 0xe1, 0xbd,
  0xe9, 0x9a, 0x07, 0xbe, 0x86, 0x6f, 0x86, 0xbd, 0x6f, 0xd8, 0x7a, 0x3e,
  0x70, 0x5d, 0xb1, 0xbc, 0x1e, 0x63, 0x29, 0x3d, 0xb3, 0x3a, 0xee, 0x3d,
  0x4c, 0x64, 0x5f, 0x3d, 0xb5, 0xd4, 0x6a, 0xbe, 0xaa, 0xf5, 0xfc, 0x3b,
  0x70, 0x19, 0x79, 0xbd, 0x49, 0x3e, 0x66, 0xbd, 0xf7, 0x54, 0x16, 0xbd,
  0x02, 0x7b, 0x4d, 0xbe, 0xbe, 0xa1, 0x7b, 0xbe, 0xd9, 0xc8, 0x4c, 0xbe,
  0x8c, 0x3f, 0xdf, 0xbc, 0x48, 0xa3, 0x87, 0xbd, 0xd4, 0x2d, 0xdd, 0xbc,
  0x7a, 0x66, 0x2f, 0xbd, 0x29, 0xdd, 0x2e, 0xbe, 0xf7, 0x91, 0x04, 0xbe,
  0xd5, 0x74, 0xb7, 0xbc, 0x7b, 0x57, 0x71, 0xbe, 0x0a, 0xce, 0x98, 0x3d,
  0x93, 0x91, 0x5a, 0xbd, 0xad, 0x2e, 0xb7, 0xbc, 0xce, 0x15, 0x82, 0x3c,
  0xbd, 0x60, 0x3b, 0xbe, 0x66, 0xe9, 0x8a, 0x3d, 0xe5, 0xa9, 0x57, 0xbe,
  0x93, 0xca, 0x69, 0xbe, 0xf0, 0x33, 0x1c, 0x3d, 0x75, 0x85, 0x39, 0xbd,
  0xca, 0xfe, 0xea, 0x3a, 0xaa, 0xb6, 0x36, 0x3e, 0x8a, 0x35, 0x8c, 0xbe,
  0x7d, 0x57, 0x2c, 0xbe, 0xeb, 0x2a, 0x83, 0xbd, 0x34, 0xe8, 0x4e, 0x3c,
  0xf1, 0x2a, 0x29, 0x3f, 0xa3, 0x04, 0xf2, 0x3c, 0x4b, 0xfc, 0x63, 0x3f,
  0xff, 0x87, 0x02, 0x3e, 0x25, 0xa7, 0x67, 0x3d, 0x18, 0x5b, 0xfa, 0x3e,
  0x45, 0x8e, 0x51, 0xbe, 0x3d, 0xc4, 0x07, 0xbd, 0xa2, 0x3e, 0x92, 0xbe,
  0x68, 0xb4, 0xbb, 0xbd, 0x18, 0x4d, 0x95, 0x3e, 0xa3, 0x54, 0x43, 0x3d,
  0xc4, 0x6d, 0xc9, 0xbd, 0x0b, 0x38, 0x6c, 0xbe, 0xec, 0x0d, 0x59, 0x3c,
  0x66, 0x15, 0x2e, 0xbb, 0x38, 0xed, 0x1e, 0xbc, 0x3f, 0x70, 0x9c, 0xbd,
  0x9c, 0x67, 0x63, 0x3f, 0x1e, 0x7e, 0x4d, 0xbe, 0x1d, 0xeb, 0x04, 0x3d,
  0xfd, 0x44, 0xe3, 0x3d, 0x12, 0xf0, 0x6f, 0x3c, 0xdb, 0x44, 0xfe, 0xbd,
  0x09, 0x09, 0x8b, 0xbe, 0x57, 0x64, 0x5a, 0xbe, 0x33, 0xf2, 0x93, 0xbe,
  0xc0, 0x55, 0x63, 0x3d, 0x34, 0xa2, 0x76, 0xbe, 0xb0, 0x9d, 0x7a, 0xbd,
  0x24, 0x8a, 0x25, 0xbe, 0xea, 0x2e, 0xf6, 0x3d, 0x31, 0x22, 0xb6, 0x3e,
  0x5b, 0x45, 0xcf, 0x3d, 0x51, 0x8b, 0x90, 0x3f, 0x1d, 0xb9, 0xa9, 0x3c,
  0xac, 0xb0, 0x20, 0x3e, 0x05, 0x11, 0x3d, 0xbc, 0x8c, 0xbb, 0x40, 0xbe,
  0xa1, 0x87, 0x0a, 0xbe, 0xfa, 0xdf, 0x89, 0xbe, 0x38, 0x30, 0x92, 0x3c,
  0x3b, 0xf5, 0xd0, 0xbb, 0x31, 0xb5, 0x76, 0x3e, 0x81, 0x02, 0xe9, 0xbc,
  0x35, 0x5a, 0x8c, 0xbb, 0x4f, 0x1d, 0x95, 0x3d, 0xa2, 0x17, 0x39, 0xbe,
  0xff, 0xb6, 0x87, 0x3d, 0x6c, 0x6b, 0x4e, 0x3c, 0xd9, 0xb3, 0x6e, 0x3f,
  0x11, 0xbf, 0xab, 0x3d, 0xc7, 0x4f, 0xe2, 0x3b, 0x24, 0x9f, 0x34, 0x3e,
  0x90, 0xc9, 0x4e, 0x3d, 0x3c, 0x8b, 0x36, 0xbe, 0xf1, 0x17, 0x16, 0xbe,
  0x79, 0x2a, 0x2d, 0xbd, 0x17, 0xac, 0x02, 0xbe, 0xa6, 0x5f, 0x2c, 0x3e,
  0x41, 0x93, 0x99, 0xbc, 0xb9, 0xb9, 0x9d, 0xbe, 0x15, 0xa4, 0x35, 0xbe,
  0x85, 0xc0, 0x8f, 0x3c, 0x9e, 0xa1, 0x1f, 0x3d, 0x64, 0xbf, 0x64, 0xbc,
  0xc4, 0x9e, 0xcf, 0x3e, 0x99, 0xeb, 0xa2, 0x3e, 0x84, 0xd2, 0xd2, 0x3c,
  0x65, 0xb9, 0x42, 0x3c, 0xe3, 0x0d, 0x26, 0xbe, 0xda, 0x15, 0x12, 0xbe,
  0x99, 0x63, 0x20, 0xbe, 0x9e, 0x0c, 0x92, 0xbd, 0x15, 0xc7, 0xe7, 0x3d,
  0xa4, 0xbd, 0x6f, 0x3e, 0xec, 0x35, 0x9c, 0xbd, 0x35, 0x6c, 0x0f, 0x3c,
  0x68, 0xfb, 0x48, 0xbe, 0xe2, 0x0a, 0x52, 0x3e, 0xf5, 0x84, 0xdd, 0x3d,
  0x3f, 0x4e, 0xd0, 0x3d, 0x25, 0x88, 0x1c, 0x3f, 0x00, 0x75, 0x19, 0x3c,
  0xa0, 0xe4, 0x03, 0x3e, 0x1c, 0x4e, 0x52, 0xbe, 0x80, 0x25, 0x11, 0xbe,
  0x6f, 0xf7, 0x53, 0xbe, 0xeb, 0x1a, 0x0a, 0x3d, 0x86, 0x0a, 0xc2, 0xbe,
  0xe7, 0x56, 0xed, 0xbd, 0x8f, 0x03, 0x7c, 0xbe, 0x4d, 0xdb, 0x84, 0xbe,
  0xc5, 0x6a, 0xbc, 0xbd, 0x2b, 0x33, 0xcc, 0xbd, 0x38, 0xd5, 0x79, 0x3d,
  0x1f, 0xe8, 0x5c, 0xbe, 0x3d, 0x61, 0x2c, 0x3e, 0x5b, 0xee, 0x6f, 0x3e,
  0xe1, 0xee, 0x1a, 0xbe, 0xf4, 0x09, 0x5c, 0xbd, 0x30, 0xb7, 0xd7, 0x3d,
  0xca, 0x86, 0x69, 0xbd, 0xa2, 0xca, 0x82, 0xbe, 0xed, 0x5b, 0xe1, 0xbe,
  0xb8, 0x5d, 0x10, 0xbe, 0x23, 0x27, 0xf6, 0xbd, 0xf4, 0x09, 0x6f, 0xbe,
  0xfb, 0x0e, 0x17, 0x3e, 0x76, 0x5b, 0x38, 0xbe, 0x1a, 0x60, 0x5f, 0xbe,
  0x84, 0xba, 0x79, 0xbc, 0xa6, 0x26, 0x14, 0xbd, 0x21, 0x91, 0x28, 0xbd,
  0x06, 0x95, 0x0d, 0xbe, 0xe2, 0x16, 0x81, 0xbe, 0xda, 0x94, 0x65, 0xbe,
  0xc1, 0xf1, 0x21, 0x3d, 0xd1, 0x82, 0x1a, 0x3d, 0xcc, 0xdd, 0xa8, 0x3c,
  0x48, 0xa4, 0x84, 0xbd, 0xb8, 0x4c, 0x76, 0x3d, 0x1b, 0x89, 0x05, 0xbc,
  0xf3, 0x4a, 0x93, 0xbc, 0xda, 0xa2, 0x8c, 0xbd, 0xf2, 0xd0, 0xfe, 0x3b,
  0x72, 0x21, 0x19, 0xbd, 0x50, 0xb0, 0x70, 0xbe, 0x6b, 0x34, 0xeb, 0x3d,
  0x17, 0x88, 0x1e, 0xbe, 0x2f, 0xab, 0x86, 0x3d, 0xb0, 0xd9, 0x51, 0xbd,
  0xd8, 0x99, 0xc2, 0xbb, 0x0d, 0xe7, 0x13, 0xbe, 0xd0, 0xba, 0xa7, 0xbc,
  0x27, 0x59, 0x99, 0x3d, 0x65, 0x2b, 0x69, 0x3d, 0x87, 0x26, 0xb8, 0x3d,
  0x73, 0x56, 0x09, 0x3d, 0x44, 0x23, 0x30, 0xbe, 0xd7, 0x98, 0x94, 0x3b,
  0xde, 0xe4, 0xd9, 0xbc, 0x29, 0xeb, 0xcc, 0x3c, 0x8d, 0x2d, 0x17, 0xbe,
  0x50, 0x8e, 0xcf, 0x3b, 0x31, 0x11, 0x35, 0xbe, 0x9b, 0x59, 0x01, 0xbd,
  0xab, 0x6e, 0x74, 0xbd, 0xfd, 0x71, 0x8c, 0x3d, 0xb0, 0x7f, 0x1c, 0x3e,
  0xb0, 0x13, 0xda, 0x3d, 0x4f, 0x4a, 0x7d, 0x3e, 0xf9, 0xcc, 0xff, 0xbd,
  0x44, 0x52, 0xc1, 0x3d, 0x0b, 0xb1, 0x80, 0xbe, 0x7e, 0xaa, 0x09, 0x3e,
  0xab, 0xbb, 0x83, 0xbe, 0x51, 0x2e, 0x01, 0xbe, 0xb2, 0xa2, 0xb8, 0x3c,
  0xaa, 0x70, 0x76, 0xbd, 0xc6, 0xaf, 0x27, 0xbc, 0x0c, 0xd4, 0xc4, 0x3d,
  0xf2, 0x92, 0x44, 0x3e, 0xf2, 0x4f, 0xbc, 0x3d, 0x89, 0x4d, 0x41, 0xbe,
  0x33, 0xd0, 0x18, 0xbe, 0x58, 0x8e, 0xed, 0x3d, 0x0c, 0xe0, 0x87, 0x3e,
  0x31, 0xf9, 0x24, 0xbd, 0x49, 0xbb, 0x4b, 0x3d, 0x70, 0xb0, 0x85, 0x3d,
  0x1d, 0x58, 0x48, 0x3e, 0x64, 0x24, 0x8b, 0xbb, 0xa4, 0xee, 0x0c, 0xbd,
  0xdc, 0x3b, 0xc7, 0x3b, 0x5a, 0xbc, 0xc1, 0xbd, 0xc8, 0x7a, 0x70, 0xbe,
  0xdc, 0xb8, 0x04, 0x3d, 0x8f, 0xd2, 0x62, 0x3c, 0xa0, 0xad, 0x42, 0x3e,
  0x2c, 0x62, 0xf7, 0xbc, 0xe1, 0x3a, 0x45, 0xbe, 0x82, 0x99, 0xa9, 0xbc,
  0x15, 0x35, 0x80, 0x3e, 0x80, 0x46, 0x22, 0x3e, 0x8a, 0xef, 0x16, 0xbe,
  0x44, 0xab, 0x62, 0xbe, 0x83, 0x48, 0x1d, 0x3d, 0x38, 0x93, 0x80, 0xbe,
  0x1f, 0x79, 0xce, 0xbb, 0x6c, 0x4b, 0x35, 0x3b, 0x44, 0xb7, 0x57, 0xbd,
  0x39, 0x13, 0x97, 0x3d, 0x9f, 0x18, 0x25, 0xbd, 0x83, 0x12, 0x38, 0xbe,
  0xb5, 0x71, 0xa3, 0xbc, 0x2c, 0xd6, 0x0a, 0x3d, 0x22, 0x9b, 0x07, 0x3d,
  0xd1, 0x68, 0xd8, 0xbd, 0x4f, 0x36, 0xda, 0x3d, 0x67, 0xf8, 0x04, 0xbd,
  0xa5, 0x73, 0x1c, 0xbe, 0x1e, 0x8e, 0x3d, 0xbd, 0x87, 0x7d, 0x33, 0x3d,
  0x85, 0x06, 0x17, 0xbe, 0x86, 0x49, 0x06, 0x3e, 0x92, 0x87, 0x07, 0xbd,
  0x3c, 0x4c, 0xf5, 0xbd, 0xd7, 0x86, 0x62, 0xbc, 0xcb, 0x84, 0xa6, 0x3d,
  0xee, 0x9e, 0x31, 0xbe, 0x8a, 0x4e, 0x1a, 0x3e, 0xbc, 0x65, 0x58, 0xbe,
  0x80, 0x64, 0x52, 0x3e, 0x08, 0xe6, 0xbc, 0xbd, 0x46, 0x41, 0x3a, 0xbe,
  0x60, 0x51, 0xc9, 0xbd, 0x91, 0x71, 0x2d, 0xbe, 0x9b, 0x24, 0x3a, 0xbd,
  0x04, 0x13, 0x20, 0xbd, 0x1c, 0x07, 0x0d, 0xbe, 0x2b, 0xcf, 0xad, 0xbc,
  0x24, 0xc7, 0x2d, 0xbd, 0xe1, 0x20, 0x34, 0xbd, 0x24, 0xb3, 0x54, 0xbe,
  0xdb, 0xe4, 0x1a, 0x3e, 0x0a, 0xc2, 0x1b, 0xbe, 0x5e, 0xe4, 0xac, 0x3c,
  0x26, 0xab, 0x42, 0xbe, 0x0c, 0x1b, 0x02, 0xbe, 0x84, 0x7a, 0xbe, 0x3d,
  0x5b, 0x9b, 0x09, 0x3e, 0x6e, 0xb4, 0xa4, 0xbc, 0xb9, 0xe8, 0x15, 0x3d,
  0xdc, 0xf1, 0xbc, 0x3d, 0x2d, 0x09, 0x55, 0x3c, 0x57, 0x33, 0x76, 0xbd,
  0x1c, 0xe1, 0x66, 0x3e, 0x3e, 0x0a, 0x0e, 0xbc, 0xf5, 0x35, 0x27, 0x3e,
  0x23, 0x18, 0xd9, 0xbe, 0x0d, 0xb7, 0x9b, 0x3d, 0xf3, 0xec, 0x39, 0xbe,
  0x37, 0x02, 0xaa, 0x3e, 0xb3, 0x44, 0x1d, 0xbe, 0x01, 0x0e, 0x0e, 0xbd,
  0x28, 0x58, 0x9a, 0x3b, 0xf0, 0xd2, 0x9e, 0xbc, 0x66, 0x7a, 0xbf, 0x3d,
  0x65, 0x8a, 0xb7, 0x3d, 0xec, 0x8f, 0x81, 0x3d, 0xb7, 0x31, 0x5d, 0x3d,
  0x00, 0x5d, 0x4c, 0xbd, 0x7d, 0x74, 0x7a, 0x3e, 0x22, 0xd1, 0x13, 0x3d,
  0x10, 0xee, 0x2c, 0xbe, 0x35, 0x77, 0x1e, 0xbd, 0xde, 0xce, 0xbf, 0xbd,
  0x36, 0x33, 0x89, 0xbe, 0xca, 0x65, 0x21, 0x3e, 0x1c, 0x43, 0x58, 0xbd,
  0xd0, 0x61, 0x04, 0xbd, 0x58, 0x6e, 0x4f, 0xbd, 0x24, 0xfc, 0x03, 0xbe,
  0x76, 0xf0, 0x9c, 0x3d, 0xf5, 0xb3, 0x3a, 0xbc, 0xc6, 0xea, 0x65, 0xbd,
  0xb0, 0xbf, 0xd5, 0xbb, 0xfb, 0x5a, 0xf2, 0x3b, 0xc3, 0x5b, 0xcf, 0x3d,
  0xd9, 0xdd, 0xb1, 0x3d, 0xf7, 0xc0, 0x81, 0xbe, 0xfd, 0x70, 0x19, 0xbc,
  0x86, 0x3c, 0xd6, 0xbd, 0x8c, 0x9f, 0x87, 0xbd, 0x5f, 0x94, 0xca, 0xbc,
  0x4c, 0x6b, 0x90, 0xbd, 0xc8, 0x7a, 0x26, 0x3d, 0x6a, 0x4e, 0x02, 0x3d,
  0x4b, 0xa5, 0x18, 0xbd, 0x65, 0x64, 0x21, 0xbc, 0x04, 0xff, 0x02, 0x3d,
  0x4f, 0x43, 0x52, 0xbc, 0xa5, 0x11, 0x29, 0xbd, 0x88, 0xa5, 0xaf, 0xbc,
  0x93, 0x98, 0x3c, 0x3e, 0xb9, 0x5c, 0x01, 0xbd, 0x0b, 0xfa, 0xc8, 0xbd,
  0xf2, 0x3b, 0xe4, 0x3c, 0xa0, 0x53, 0x03, 0xbc, 0xaf, 0x18, 0x06, 0xbd,
  0xc9, 0x9d, 0xce, 0x3b, 0x73, 0x53, 0xab, 0xbd, 0x6e, 0x8e, 0xe0, 0xbd,
  0xd6, 0x34, 0xff, 0x3b, 0x51, 0x13, 0x69, 0x3c, 0x31, 0xb7, 0xd0, 0x3a,
  0xd8, 0xd7, 0xd7, 0x3b, 0x85, 0x68, 0xab, 0x3d, 0x8f, 0xc6, 0x49, 0xbe,
  0xc2, 0xc9, 0x7e, 0xbd, 0xa0, 0x34, 0x04, 0x3e, 0x24, 0x83, 0x11, 0xbe,
  0xea, 0x76, 0xda, 0xbd, 0x4b, 0x8b, 0x43, 0x3d, 0x78, 0x52, 0xe9, 0xbd,
  0xcc, 0x50, 0xcf, 0xbd, 0xcd, 0x24, 0x95, 0x3e, 0xed, 0xe3, 0xd6, 0xbd,
  0xe6, 0x86, 0x76, 0x3d, 0xe1, 0x3d, 0x59, 0x3d, 0x6e, 0x0f, 0x95, 0x3d,
  0x8b, 0x70, 0x67, 0x3d, 0xe4, 0xec, 0x37, 0x3d, 0x35, 0x21, 0xb4, 0x3a,
  0xba, 0xe9, 0x05, 0xbe, 0x8f, 0xa4, 0xf3, 0xbb, 0x0c, 0x43, 0xa3, 0x3e,
  0x2e, 0xac, 0x86, 0xbe, 0xb0, 0xfc, 0x4f, 0x3c, 0xe7, 0x80, 0xe9, 0xbc,
  0x0b, 0xe4, 0xe0, 0xbc, 0xae, 0x11, 0xc0, 0xbb, 0xab, 0xd9, 0x5e, 0x3e,
  0x4b, 0xae, 0x9f, 0xbc, 0x3b, 0x62, 0x83, 0xbe, 0x86, 0x95, 0x82, 0x3d,
  0xa0, 0xc1, 0x84, 0x3b, 0x26, 0x5d, 0x87, 0xbc, 0x39, 0x4f, 0x04, 0x3d,
  0x25, 0x29, 0x65, 0xbe, 0xa2, 0x94, 0x25, 0x3e, 0xff, 0x94, 0x2b, 0xbc,
  0x66, 0x30, 0x28, 0xbd, 0xfb, 0x14, 0x7a, 0xbe, 0x27, 0x1b, 0x2a, 0xbc,
  0x21, 0x9c, 0x40, 0x3e, 0x62, 0xbe, 0xc9, 0x3d, 0x35, 0xc7, 0x2c, 0x3e,
  0x27, 0x1e, 0x9f, 0x3d, 0x04, 0x79, 0x0b, 0x3d, 0xf7, 0x43, 0xf3, 0x3d,
  0x2f, 0xb7, 0x7b, 0xbd, 0x0a, 0x15, 0x92, 0xbd, 0x06, 0xb0, 0x1a, 0xbe,
  0xd0, 0x7b, 0xae, 0xbd, 0xae, 0xad, 0x02, 0xbe, 0xc9, 0x3a, 0x94, 0x3e,
  0xb3, 0x69, 0x76, 0xbe, 0x99, 0xf1, 0x6e, 0xbd, 0x16, 0x20, 0x0f, 0x3e,
  0x2d, 0x52, 0xae, 0xbd, 0xce, 0x83, 0x6e, 0x3b, 0x4b, 0x95, 0x95, 0x3e,
  0x17, 0x59, 0x5e, 0xbe, 0xbf, 0x0e, 0x60, 0xbe, 0xbf, 0xcd, 0x3e, 0xbd,
  0x2e, 0x07, 0xe2, 0x3e, 0x36, 0xd6, 0xf4, 0xbc, 0xd8, 0xa6, 0x94, 0xbd,
  0x6d, 0x53, 0x6b, 0xbc, 0xb7, 0x98, 0x1e, 0xbe, 0x5e, 0xfe, 0x3f, 0xbe,
  0xbb, 0xd5, 0x40, 0x3e, 0x1b, 0x1d, 0x4c, 0xbe, 0xf0, 0xc3, 0x1c, 0x3d,
  0x61, 0xd6, 0x34, 0x3e, 0x94, 0x68, 0xd9, 0xbc, 0x30, 0x24, 0xbe, 0xbd,
  0x42, 0x45, 0xce, 0x3d, 0xf9, 0x1d, 0x14, 0x3d, 0xea, 0x4d, 0x2a, 0x3e,
  0x2b, 0x1c, 0x6e, 0xbe, 0xad, 0xfe, 0x4a, 0xbd, 0x3f, 0x9d, 0x00, 0x3e,
  0xe5, 0xe1, 0x7b, 0xbe, 0xd2, 0xb9, 0x14, 0xbe, 0x3b, 0xf6, 0xb2, 0xbe,
  0x5e, 0xba, 0x00, 0xbd, 0x10, 0x3a, 0x9b, 0x3d, 0x44, 0x06, 0x51, 0xbe,
  0xe9, 0x1f, 0x5b, 0x3d, 0xd1, 0x5e, 0x68, 0x3d, 0xc4, 0x99, 0xa9, 0x3d,
  0x98, 0xc7, 0x25, 0xbe, 0x04, 0xa3, 0xdd, 0x3d, 0x72, 0x74, 0x37, 0xbe,
  0xa0, 0x62, 0x0f, 0x3e, 0x58, 0x76, 0x6d, 0xbe, 0x1e, 0x63, 0x83, 0x3e,
  0xec, 0x62, 0x3c, 0xbe, 0xf7, 0xaf, 0xeb, 0xbd, 0x1f, 0x21, 0xe4, 0x3b,
  0xbf, 0x61, 0xef, 0xbd, 0x70, 0xdb, 0xb1, 0x3d, 0xae, 0xd5, 0x07, 0xbe,
  0xa3, 0x8f, 0x30, 0xbe, 0x4a, 0x23, 0x61, 0xbe, 0xed, 0x48, 0x29, 0xb7,
  0xf4, 0x20, 0x94, 0xbd, 0xe5, 0xa6, 0x05, 0xbe, 0xa1, 0x02, 0x23, 0xbd,
  0xd7, 0xfb, 0x9a, 0xbd, 0x59, 0x99, 0x0d, 0x3e, 0x57, 0xac, 0x45, 0xbe,
  0x7c, 0x3d, 0xda, 0xbd, 0x33, 0x43, 0x8a, 0xbd, 0x48, 0x30, 0xba, 0x3c,
  0x24, 0x32, 0x19, 0xbe, 0x70, 0x8e, 0x28, 0x3d, 0xff, 0xb9, 0xc8, 0xbd,
  0x5d, 0x46, 0x12, 0xbe, 0x47, 0x1e, 0x36, 0xbe, 0x50, 0x4b, 0x8f, 0xbe,
  0xe1, 0x4f, 0x17, 0xbe, 0xe4, 0xa9, 0xd4, 0xbd, 0x41, 0x90, 0x0b, 0x3e,
  0x22, 0x74, 0x52, 0x3d, 0x65, 0xb2, 0x1c, 0x3e, 0xf1, 0x89, 0x21, 0xbd,
  0xbd, 0x0d, 0x1e, 0xbe, 0x93, 0x0b, 0x7f, 0xbe, 0x48, 0xf8, 0xe4, 0x3b,
  0x1e, 0x6e, 0x61, 0xbe, 0x1e, 0xbd, 0x1a, 0xbe, 0x32, 0xc9, 0x48, 0xbe,
  0xf9, 0x13, 0xbd, 0x3d, 0xe7, 0x48, 0xb3, 0xbc, 0x5a, 0xf8, 0x41, 0xbd,
  0x85, 0x4b, 0x46, 0x3d, 0x9a, 0xbe, 0x00, 0x3e, 0xbe, 0x51, 0x67, 0x3d,
  0x4b, 0xc1, 0xa7, 0x3d, 0x83, 0x23, 0xb7, 0xbd, 0xcd, 0x1a, 0x3c, 0xbd,
  0x34, 0x05, 0x7c, 0xbe, 0xba, 0x66, 0x07, 0xbe, 0x8e, 0xe6, 0x94, 0x3e,
  0x43, 0xec, 0x88, 0xbd, 0x2c, 0x81, 0xfd, 0xbd, 0x08, 0x67, 0xc3, 0xbe,
  0x2f, 0x2a, 0x0b, 0xbe, 0xf8, 0xdc, 0x41, 0x3e, 0x44, 0x86, 0xae, 0x3e,
  0x3e, 0x55, 0xd6, 0xbc, 0xba, 0xac, 0x26, 0x3e, 0x41, 0xa4, 0x67, 0x3e,
  0x34, 0x50, 0x12, 0x3e, 0x97, 0x1f, 0x9e, 0x3e, 0x2f, 0x67, 0x50, 0x3e,
  0xd1, 0x23, 0xe9, 0xbd, 0x0e, 0x02, 0x08, 0x3e, 0xbc, 0x33, 0x13, 0x3e,
  0x2f, 0xdc, 0xb1, 0x3d, 0xa7, 0xfe, 0x03, 0xbe, 0x04, 0xec, 0x7e, 0xbe,
  0xd3, 0x42, 0x02, 0x3e, 0xc0, 0x08, 0x23, 0x3d, 0xdb, 0x3d, 0xf0, 0xbc,
  0x95, 0xa7, 0xcd, 0xbc, 0x02, 0x8f, 0xdd, 0xbc, 0x21, 0x6c, 0xa3, 0xbd,
  0x06, 0x7a, 0xa1, 0xbc, 0x00, 0xb9, 0x92, 0x3e, 0xa1, 0x85, 0xa6, 0xbd,
  0x22, 0xfb, 0xb1, 0x3d, 0xc8, 0xa0, 0x31, 0xbe, 0x9a, 0x3e, 0xdd, 0x3d,
  0xd2, 0x63, 0x0a, 0x3d, 0x02, 0x23, 0x65, 0x3d, 0x71, 0x71, 0x18, 0xbd,
  0x8e, 0x3f, 0x0e, 0xbe, 0x62, 0xb3, 0x52, 0xbe, 0xec, 0x17, 0xd6, 0xbc,
  0xb2, 0x0c, 0xda, 0x3d, 0xc5, 0x1f, 0x97, 0xbd, 0xca, 0x00, 0xe0, 0xbd,
  0x14, 0x68, 0xbc, 0xbc, 0xed, 0x98, 0x42, 0x3e, 0xa0, 0xa7, 0x57, 0x3e,
  0xf8, 0x8f, 0xf3, 0x3c, 0x07, 0xde, 0x04, 0x3e, 0x5c, 0xfd, 0xbc, 0xbd,
  0x1b, 0xcd, 0xa1, 0x3d, 0x37, 0x07, 0x08, 0x3d, 0x4a, 0x63, 0x0e, 0xbd,
  0x61, 0x30, 0x4b, 0x3d, 0x1d, 0xa6, 0xb3, 0xbe, 0x82, 0x5f, 0xf5, 0xbc,
  0xf1, 0x1d, 0x1a, 0x3b, 0x3c, 0x3c, 0x33, 0x3e, 0x83, 0xa1, 0xd4, 0x3d,
  0xdf, 0xf1, 0xfb, 0xbc, 0xca, 0x37, 0x16, 0xbe, 0x3b, 0xf4, 0xe7, 0x3e,
  0x47, 0x5b, 0xdb, 0x3d, 0x16, 0x2c, 0x05, 0xbe, 0x2e, 0xf6, 0x4a, 0x3e,
  0x70, 0xde, 0x0b, 0xbf, 0x76, 0xb8, 0x0d, 0x3e, 0xb4, 0x74, 0x29, 0x3e,
  0x62, 0xca, 0x21, 0xbe, 0x5c, 0xd5, 0xcc, 0x3c, 0x6d, 0x2b, 0x74, 0xbe,
  0x7f, 0x95, 0x10, 0xbd, 0x93, 0x8a, 0xb0, 0xbc, 0xdd, 0x37, 0x87, 0x3e,
  0x7f, 0xda, 0xe1, 0x3c, 0x8c, 0x9a, 0x4e, 0xbd, 0xff, 0xfc, 0xad, 0xbd,
  0x33, 0xdd, 0x4f, 0x3e, 0xf3, 0xc1, 0x20, 0x3e, 0x9c, 0x41, 0xd4, 0xbd,
  0x1c, 0xd9, 0x75, 0x3e, 0x93, 0x50, 0x01, 0xbd, 0x19, 0x52, 0x79, 0x3d,
  0xad, 0x9f, 0x68, 0x3d, 0x15, 0x58, 0x60, 0x3e, 0xb9, 0x89, 0x30, 0x3c,
  0xaf, 0x44, 0x7f, 0xbe, 0xd8, 0x4a, 0xd2, 0xbd, 0xd5, 0x71, 0x19, 0xbd,
  0xb3, 0x8a, 0x22, 0x3e, 0x73, 0x07, 0x84, 0xbc, 0x38, 0x01, 0xf4, 0xbb,
  0x87, 0x52, 0x44, 0xbe, 0x3a, 0xd7, 0x7c, 0x3e, 0x5e, 0x7d, 0x99, 0x3e,
  0x9d, 0x6b, 0x29, 0x3d, 0xd2, 0x0e, 0x8c, 0x3e, 0x1d, 0xec, 0x95, 0xbe,
  0x67, 0x11, 0xbc, 0x3b, 0x90, 0xed, 0xf6, 0x3d, 0xaf, 0x90, 0x3b, 0xbd,
  0x19, 0xa0, 0xa8, 0xbd, 0x37, 0x63, 0xa0, 0xbe, 0x83, 0x51, 0xee, 0xbd,
  0x86, 0x69, 0x88, 0xbd, 0x61, 0x60, 0x69, 0x3e, 0x46, 0x16, 0x3d, 0x3e,
  0x6b, 0xc2, 0xdb, 0xbd, 0x1e, 0xa0, 0x86, 0xba, 0x86, 0x9e, 0xdc, 0x3e,
  0x8f, 0xd0, 0x08, 0x3e, 0xc7, 0x62, 0x00, 0x3e, 0x05, 0x02, 0xe6, 0x3d,
  0xf9, 0x3d, 0x53, 0x3d, 0x58, 0x36, 0x3f, 0x3c, 0x21, 0x21, 0x07, 0xbd,
  0x2b, 0xe6, 0x1e, 0x3e, 0x4f, 0x0e, 0xaa, 0xbc, 0x4d, 0xb6, 0x3c, 0xbe,
  0x59, 0x5c, 0x5f, 0x3c, 0x42, 0x0e, 0xa7, 0xbc, 0xba, 0xbe, 0x5e, 0x3d,
  0x8d, 0xe3, 0x85, 0xbd, 0x7d, 0xde, 0x82, 0x3d, 0xb4, 0xc2, 0x8e, 0xbe,
  0x34, 0x38, 0xac, 0xbd, 0x1e, 0xdf, 0x43, 0xbd, 0x4a, 0x3a, 0x08, 0xbd,
  0x0d, 0xd2, 0x6e, 0x3e, 0x80, 0x97, 0x9f, 0x3f, 0x2d, 0xb4, 0xa2, 0xbe,
  0x5a, 0xfc, 0x70, 0xbe, 0xd2, 0x95, 0xc9, 0x3a, 0x50, 0xf5, 0xba, 0x3d,
  0x91, 0xbe, 0x60, 0xbe, 0xd3, 0x9f, 0xda, 0xbb, 0xd1, 0x07, 0x82, 0x3d,
  0x28, 0x4d, 0x39, 0xbd, 0xa2, 0xd8, 0x9a, 0xbe, 0x9f, 0x74, 0x49, 0xbe,
  0xd5, 0x66, 0x18, 0xbe, 0x5b, 0x07, 0xcb, 0xbd, 0x5b, 0x0e, 0x65, 0xbd,
  0x17, 0x1d, 0xdc, 0xbd, 0xa8, 0x21, 0x58, 0xbd, 0xeb, 0x55, 0x9c, 0x3f,
  0x60, 0x01, 0x78, 0xbe, 0xd2, 0x9e, 0xd2, 0xbd, 0xc6, 0xc3, 0x24, 0xbe,
  0xe5, 0x79, 0xef, 0x3c, 0xbb, 0xbc, 0xc5, 0xbd, 0x0e, 0x84, 0x35, 0x3e,
  0x63, 0x47, 0x8b, 0x3d, 0xbb, 0xe3, 0x34, 0xbe, 0xef, 0xa1, 0xfe, 0xbe,
  0x44, 0x95, 0xa5, 0xbb, 0xb1, 0xfc, 0x8b, 0xbe, 0xda, 0x38, 0x1b, 0x3b,
  0xfe, 0xba, 0x30, 0x3e, 0x39, 0xb7, 0xb9, 0x3d, 0x31, 0x50, 0xaa, 0xbd,
  0xfa, 0xe8, 0xa9, 0x3f, 0x5e, 0x6d, 0x76, 0xbe, 0x68, 0x90, 0xb8, 0xbd,
  0x04, 0xbd, 0x0d, 0xbe, 0x30, 0x5f, 0x51, 0x3e, 0x33, 0x5c, 0x63, 0x3e,
  0x44, 0x85, 0x43, 0xbd, 0x33, 0x03, 0xe7, 0x3d, 0x05, 0x01, 0x58, 0xbd,
  0x8f, 0x12, 0xc6, 0xbe, 0x97, 0xb9, 0x10, 0xbc, 0x2f, 0x34, 0x63, 0x3c,
  0x63, 0xbf, 0x14, 0xbe, 0x00, 0x2f, 0x12, 0x3e, 0x3d, 0xf8, 0x06, 0x3c,
  0xcf, 0x66, 0xd7, 0x3c, 0x6b, 0xcd, 0xc2, 0x3f, 0xfd, 0x98, 0x62, 0x3e,
  0x62, 0xdd, 0xb2, 0xbd, 0xd4, 0xf5, 0x83, 0xbd, 0xdc, 0xd8, 0x50, 0x3e,
  0xb0, 0xca, 0x50, 0x3e, 0xca, 0x8d, 0xf4, 0x3a, 0x5e, 0x0e, 0xfe, 0xbb,
  0xf1, 0xc3, 0x11, 0x3e, 0xc9, 0x19, 0x43, 0xbe, 0x56, 0x4f, 0x03, 0xbe,
  0xef, 0x01, 0xf9, 0xbb, 0xa5, 0x2b, 0x36, 0xbd, 0x38, 0xc2, 0x34, 0xbe,
  0x9b, 0x61, 0x4d, 0xbe, 0xed, 0x26, 0xc6, 0x3d, 0xa7, 0x22, 0x95, 0x3f,
  0x12, 0xa5, 0x53, 0x3c, 0xc8, 0x51, 0x56, 0xbe, 0x05, 0xee, 0x04, 0x3e,
  0x6a, 0x3b, 0x2f, 0x3e, 0xfb, 0x9f, 0xa1, 0xbc, 0x9a, 0x64, 0x75, 0x3e,
  0xbf, 0x84, 0x04, 0x3e, 0x01, 0xdc, 0x2c, 0xbe, 0x9c, 0xba, 0xa7, 0xbd,
  0xb0, 0x01, 0xf6, 0x3c, 0x94, 0xd7, 0x47, 0xbe, 0x2d, 0xd3, 0x25, 0xbe,
  0x60, 0x29, 0xf9, 0x3d, 0xc5, 0x25, 0x41, 0xbd, 0xdb, 0xed, 0x21, 0xbd,
  0x28, 0x15, 0xba, 0x3f, 0x38, 0x10, 0x1d, 0xbe, 0xe0, 0x73, 0x95, 0xbd,
  0x5a, 0xc7, 0xa5, 0xbd, 0x26, 0xd1, 0xda, 0x3d, 0x1d, 0x62, 0x6e, 0xbe,
  0x42, 0xbc, 0xad, 0x3e, 0x1c, 0xa8, 0x6c, 0x3e, 0x28, 0xae, 0x94, 0xb9,
  0xea, 0xf9, 0xa4, 0xbd, 0xf5, 0x40, 0x7a, 0xbd, 0x26, 0x57, 0x9b, 0xbe,
  0x67, 0x7d, 0x8e, 0x3d, 0x97, 0x05, 0x1a, 0xbe, 0x39, 0xc6, 0xbe, 0xbd,
  0xfc, 0xcc, 0x3a, 0xbd, 0x80, 0xcf, 0x5c, 0x3e, 0x69, 0x70, 0xb1, 0xbe,
  0x66, 0xd9, 0xbf, 0xbd, 0xba, 0xf6, 0x1e, 0xbe, 0xee, 0x17, 0x2e, 0xbe,
  0x6a, 0xee, 0xe5, 0x3c, 0xb8, 0x67, 0x76, 0xbd, 0x17, 0xdb, 0x1f, 0x3d,
  0x46, 0xfe, 0xff, 0xff, 0x10, 0x00, 0x00, 0x00, 0x05, 0x00, 0x00, 0x00,
  0x14, 0x00, 0x00, 0x00, 0x2c, 0x00, 0x00, 0x00, 0x02, 0x00, 0x00, 0x00,
  0x10, 0x00, 0x00, 0x00, 0x70, 0x00, 0x00, 0x00, 0x17, 0x00, 0x00, 0x00,
  0x73, 0x65, 0x71, 0x75, 0x65, 0x6e, 0x74, 0x69, 0x61, 0x6c, 0x2f, 0x64,
  0x65, 0x6e, 0x73, 0x65, 0x2f, 0x4d, 0x61, 0x74, 0x4d, 0x75, 0x6c, 0x00,
  0x34, 0xfe, 0xff, 0xff, 0x2a, 0xff, 0xff, 0xff, 0x04, 0x00, 0x00, 0x00,
  0x08, 0x00, 0x00, 0x00, 0xff, 0xff, 0xff, 0xff, 0x70, 0x00, 0x00, 0x00,
  0x00, 0x00, 0x0e, 0x00, 0x18, 0x00, 0x08, 0x00, 0x07, 0x00, 0x0c, 0x00,
  0x10, 0x00, 0x14, 0x00, 0x0e, 0x00, 0x00, 0x00, 0x00, 0x00, 0x00, 0x02,
  0x10, 0x00, 0x00, 0x00, 0x04, 0x00, 0x00, 0x00, 0x10, 0x00, 0x00, 0x00,
  0x2c, 0x00, 0x00, 0x00, 0x01, 0x00, 0x00, 0x00, 0x02, 0x00, 0x00, 0x00,
  0x18, 0x00, 0x00, 0x00, 0x73, 0x65, 0x71, 0x75, 0x65, 0x6e, 0x74, 0x69,
  0x61, 0x6c, 0x2f, 0x66, 0x6c, 0x61, 0x74, 0x74, 0x65, 0x6e, 0x2f, 0x43,
  0x6f, 0x6e, 0x73, 0x74, 0x00, 0x00, 0x00, 0x00, 0x9c, 0xfe, 0xff, 0xff,
  0x92, 0xff, 0xff, 0xff, 0x04, 0x00, 0x00, 0x00, 0x10, 0x00, 0x00, 0x00,
  0x44, 0x2e, 0xb8, 0x3e, 0x84, 0xc0, 0x44, 0xbf, 0x17, 0x9b, 0x48, 0xc0,
  0x22, 0x17, 0xd2, 0x3f, 0x0a, 0xff, 0xff, 0xff, 0x10, 0x00, 0x00, 0x00,
  0x03, 0x00, 0x00, 0x00, 0x10, 0x00, 0x00, 0x00, 0x3c, 0x00, 0x00, 0x00,
  0x01, 0x00, 0x00, 0x00, 0x04, 0x00, 0x00, 0x00, 0x29, 0x00, 0x00, 0x00,
  0x73, 0x65, 0x71, 0x75, 0x65, 0x6e, 0x74, 0x69, 0x61, 0x6c, 0x2f, 0x64,
  0x65, 0x6e, 0x73, 0x65, 0x5f, 0x31, 0x2f, 0x42, 0x69, 0x61, 0x73, 0x41,
  0x64, 0x64, 0x2f, 0x52, 0x65, 0x61, 0x64, 0x56, 0x61, 0x72, 0x69, 0x61,
  0x62, 0x6c, 0x65, 0x4f, 0x70, 0x00, 0x00, 0x00, 0x60, 0xff, 0xff, 0xff,
  0x00, 0x00, 0x06, 0x00, 0x08, 0x00, 0x04, 0x00, 0x06, 0x00, 0x00, 0x00,
  0x04, 0x00, 0x00, 0x00, 0x40, 0x00, 0x00, 0x00, 0x23, 0x9d, 0x99, 0xbe,
  0x0b, 0x17, 0xc7, 0x3c, 0xa5, 0xbb, 0x16, 0xbf, 0x8b, 0x9c, 0xe4, 0x3e,
  0x7e, 0x9c, 0xbc, 0xbe, 0xb2, 0x3f, 0xbb, 0xbe, 0xec, 0x62, 0x9b, 0xbd,
  0x0b, 0x85, 0x43, 0xbe, 0x65, 0xac, 0x86, 0x3e, 0x72, 0x64, 0x86, 0xbe,
  0x38, 0xf0, 0x7a, 0x3d, 0xd9, 0x7c, 0xcd, 0xbe, 0x28, 0xcf, 0x8e, 0xbe,
  0x3a, 0x54, 0xbf, 0xbe, 0x6d, 0xb2, 0x45, 0x3f, 0xa9, 0x88, 0x25, 0x3e,
  0xae, 0xff, 0xff, 0xff, 0x10, 0x00, 0x00, 0x00, 0x02, 0x00, 0x00, 0x00,
  0x10, 0x00, 0x00, 0x00, 0x3c, 0x00, 0x00, 0x00, 0x01, 0x00, 0x00, 0x00,
  0x10, 0x00, 0x00, 0x00, 0x27, 0x00, 0x00, 0x00, 0x73, 0x65, 0x71, 0x75,
  0x65, 0x6e, 0x74, 0x69, 0x61, 0x6c, 0x2f, 0x64, 0x65, 0x6e, 0x73, 0x65,
  0x2f, 0x42, 0x69, 0x61, 0x73, 0x41, 0x64, 0x64, 0x2f, 0x52, 0x65, 0x61,
  0x64, 0x56, 0x61, 0x72, 0x69, 0x61, 0x62, 0x6c, 0x65, 0x4f, 0x70, 0x00,
  0x04, 0x00, 0x06, 0x00, 0x04, 0x00, 0x00, 0x00, 0x00, 0x00, 0x0e, 0x00,
  0x14, 0x00, 0x04, 0x00, 0x00, 0x00, 0x08, 0x00, 0x0c, 0x00, 0x10, 0x00,
  0x0e, 0x00, 0x00, 0x00, 0x10, 0x00, 0x00, 0x00, 0x01, 0x00, 0x00, 0x00,
  0x1c, 0x00, 0x00, 0x00, 0x2c, 0x00, 0x00, 0x00, 0x04, 0x00, 0x00, 0x00,
  0x01, 0x00, 0x00, 0x00, 0x40, 0x00, 0x00, 0x00, 0x03, 0x00, 0x00, 0x00,
  0x01, 0x00, 0x00, 0x00, 0x0c, 0x00, 0x00, 0x00, 0x63, 0x6f, 0x6e, 0x76,
  0x32, 0x64, 0x5f, 0x69, 0x6e, 0x70, 0x75, 0x74, 0x00, 0x00, 0x00, 0x00,
  0xfc, 0xff, 0xff, 0xff, 0x04, 0x00, 0x04, 0x00, 0x04, 0x00, 0x00, 0x00


};


unsigned int model_tflite_len = 12384;// Fill the int in `src/model.cc` here
